<unk>
<s>
</s>
<noise>
<epsilon>
▁
t
h
e
o
f
a
n
d
i
w
s
r
b
y
m
T
v
c
u
l
I
p
H
-
k
g
B
j
A
S
M
.
x
F
1
W
N
q
2
U
O
,
J
3
0
Y
4
z
9
6
5
P
E
G
D
8
"
&
C
7
K
'
R
L
(
)
V
:
Q
*
;
?
Z
/
%
$
X
!
{
}
[
]
+
▅
~
`
#
<
=
>
@
\
^
_
|
th
the
▁the
in
an
on
ing
and
en
▁w
of
▁of
er
ed
or
ou
re
▁b
at
ar
al
▁f
▁and
▁h
ch
▁a
▁in
ion
to
▁to
▁p
▁for
▁c
▁s
is
▁th
▁m
om
▁wh
as
es
▁was
▁that
ent
it
ic
ation
ow
▁d
ly
Th
gh
▁be
ad
▁n
▁wi
▁with
ver
ve
un
im
▁sh
▁con
ro
▁no
ther
▁pro
le
▁re
ct
▁g
▁on
id
ld
ould
qu
▁his
▁had
us
ur
▁he
▁com
ay
am
ex
ment
▁Th
igh
ough
ce
ir
oun
▁this
▁is
▁l
ll
all
rom
▁from
tr
▁it
▁A
ble
our
▁I
if
▁ex
▁by
▁not
ain
ave
▁have
▁as
▁S
ter
ive
ol
il
ul
ut
▁but
▁will
ight
out
▁st
ck
▁su
▁whi
▁which
ction
▁t
▁are
▁would
os
ous
▁an
▁un
▁H
▁The
▁him
ity
ag
▁r
▁C
▁1
▁M
▁at
ill
own
od
other
▁j
▁de
▁ne
um
ure
▁ch
▁B
▁her
op
over
iv
ound
ak
ist
ig
ack
est
▁tr
ard
ome
▁some
▁19
end
ence
▁has
ally
▁v
▁e
▁or
▁wor
▁W
▁y
▁you
▁all
▁wer
▁were
▁we
▁P
ers
ess
res
ies
iz
's
ong
▁se
ate
for
able
▁k
▁le
ud
▁out
pp
▁comp
▁exp
up
▁up
▁sp
▁F
ish
act
ect
▁gr
bout
▁tim
ap
ach
▁ev
el
imp
ost
▁new
▁dis
▁kn
em
▁who
▁when
▁been
ant
ance
▁man
ace
art
▁mor
▁pl
▁al
▁other
▁about
ition
▁app
▁D
ast
et
▁more
ust
st
ot
▁could
ort
ign
▁R
▁N
▁into
▁tw
▁us
▁"
▁comm
ab
old
▁do
ok
▁so
ook
ood
ind
▁G
▁than
ial
ical
▁work
irst
▁their
▁first
▁one
▁only
▁O
▁what
▁two
▁part
ip
▁L
▁E
▁pres
▁pr
▁imp
▁qu
▁over
▁op
▁T
▁J
▁ro
av
▁should
▁she
ious
▁cl
▁str
ang
ob
ik
▁lik
ib
▁even
rough
▁through
▁und
▁ad
▁though
▁such
vel
00
▁2
age
ff
ject
▁if
very
▁In
▁time
ose
ame
▁any
▁ag
▁again
ated
▁en
▁-
ult
▁high
tain
velop
▁ob
urn
ub
▁just
▁can
▁ye
▁year
▁ar
▁(
ary
ew
aw
way
ward
ac
oc
ail
▁world
ond
ress
▁ind
iff
▁diff
elf
ful
▁those
▁back
▁bo
▁its
ild
▁look
▁long
▁tak
▁sub
▁develop
▁He
▁now
▁inter
ide
▁like
▁br
fter
▁after
▁mak
reat
▁great
▁how
ire
▁there
▁i
▁our
ie
▁supp
▁most
▁may
▁me
▁must
aid
▁said
aus
are
▁pre
▁your
▁well
ark
ick
▁know
▁hand
ber
▁per
ible
▁befor
▁down
▁dr
▁child
▁they
ove
ian
▁own
▁every
▁good
▁res
▁pos
▁day
▁way
▁po
▁U
ffect
ell
▁under
form
ass
ations
pt
cept
▁coun
▁bec
▁becaus
cess
▁each
▁stud
ens
ine
ge
og
lect
▁state
ities
itt
app
▁against
ittle
▁little
▁It
▁rep
▁cont
▁fr
▁very
▁An
cre
▁cons
ubl
ublic
▁seem
▁before
ade
▁made
ree
one
ice
▁three
ident
▁did
▁des
air
ather
▁But
▁another
▁many
▁bl
cial
▁off
▁turn
▁never
ution
▁ac
▁acc
▁rec
ople
ates
amp
▁K
▁while
ield
▁still
olog
▁3
ool
chool
▁col
▁pol
▁And
s.
▁both
ath
ific
▁interest
▁school
▁act
uct
irect
oll
ollow
▁wher
▁where
erv
ater
iver
thing
▁because
eople
▁people
▁lif
▁Wh
ative
se
▁these
s,
self
▁himself
▁spe
▁num
▁number
▁import
cl
clud
und
▁commun
▁rel
▁prov
ov
▁proble
ular
▁plan
▁place
▁add
ature
▁hous
▁effect
▁em
▁am
▁rem
▁cr
gr
gram
▁program
▁cour
uch
▁much
ness
overn
overnment
ax
creas
▁old
stem
▁result
ual
▁sto
▁Y
atter
arr
▁around
ces
ord
▁consid
ans
▁trans
ict
▁course
ock
▁go
▁prop
▁prod
oup
▁group
▁resp
▁serv
▁countr
ue
ep
ite
we
ween
tween
▁between
▁follow
▁fact
ystem
ull
uc
▁pers
▁person
▁word
▁without
▁problem
▁public
ational
ility
▁ear
▁play
▁fl
▁te
▁life
▁youn
▁poin
▁point
ink
▁think
ix
▁ph
▁make
▁system
▁sc
▁disc
ph
▁Ch
▁Sh
hip
▁them
▁form
man
▁195
▁als
▁also
▁show
day
▁quest
▁question
▁years
▁ab
ince
▁direct
▁end
▁sm
▁small
▁This
ually
▁char
▁chang
ied
ily
ia
iet
▁get
ably
▁appro
▁last
▁att
▁home
▁since
▁social
▁St
▁present
▁comple
ile
▁differ
▁gen
▁gener
▁government
▁196
▁enough
ience
▁call
ory
▁my
▁im
▁consider
▁same
▁become
▁V
▁came
ount
▁cent
▁open
▁alway
gan
▁found
▁bas
▁water
▁fe
term
▁exper
▁wr
▁knew
▁few
ustr
▁industr
uild
▁reg
▁young
▁feel
ember
▁increas
▁class
▁special
▁equ
▁requ
emb
embers
▁ord
▁thought
ertain
ext
az
ugh
▁ent
ient
▁giv
▁Un
▁important
000
▁prof
ank
▁certain
".
▁right
▁development
ism
▁pass
les
▁dep
▁poss
▁possible
▁18
▁contin
▁ass
ons
iss
ivid
▁individ
▁individual
▁contr
▁conf
▁cond
▁condition
▁Mr
▁sl
ever
▁however
▁conc
▁might
▁4
▁art
▁oc
▁occ
▁expect
▁start
▁ref
▁itself
ision
augh
▁ke
ican
erican
▁partic
▁particular
ower
▁states
▁something
▁nothing
▁say
▁read
▁stand
▁def
▁experience
▁head
▁sur
pl
uck
▁next
▁night
▁want
▁report
land
▁build
▁keep
▁house
▁order
ically
▁record
ug
▁eng
uction
▁oper
ense
▁unders
ments
▁lead
atch
urch
▁church
▁charact
▁dec
▁adv
▁On
ning
▁war
▁jo
▁sec
▁second
▁see
▁sever
▁set
ganiz
▁opp
outh
▁general
alk
ission
▁loc
▁law
ise
read
iew
▁New
▁Af
▁position
▁simp
▁subject
▁object
▁necess
▁need
▁nor
ief
▁elect
▁remain
▁inst
▁design
▁sign
▁along
▁among
▁american
▁room
▁national
▁contro
▁bel
▁belie
▁complet
▁examp
▁determ
▁dist
▁process
tom
▁adm
iness
usiness
▁business
less
▁less
▁lef
▁left
▁level
▁tax
ty
▁let
▁members
▁kind
▁addition
▁inv
▁president
▁power
fort
ash
ase
ush
most
▁almost
▁cost
▁cap
▁cor
ors
▁thing
▁real
▁val
▁dem
▁She
▁use
▁take
▁happ
▁find
ating
▁dur
▁during
▁includ
ention
▁5
▁ide
▁gu
▁continu
ason
▁reason
▁upon
▁light
▁several
▁bro
▁different
▁service
▁concer
ere
▁There
▁above
▁fam
▁family
▁walk
▁became
▁tech
▁techn
▁given
▁accept
▁hum
▁human
▁compan
▁arm
▁Am
▁American
idence
ear
▁appear
arge
▁large
▁white
lish
ified
▁strong
▁gl
▁stre
▁empl
▁mark
▁come
aterial
▁later
cret
ances
▁colle
ions
▁ask
▁support
▁short
pe
ike
▁once
ized
▁used
▁near
▁car
▁co
olution
▁four
▁repres
▁prev
artment
ently
▁leg
▁least
▁known
▁For
▁view
aph
▁close
▁alread
▁var
▁far
▁field
▁term
▁fin
▁went
▁case
▁cle
▁clear
▁care
▁univer
▁job
iqu
ipp
▁yet
▁respons
▁respect
ablish
ents
▁rather
▁example
▁imm
▁name
ibility
▁hard
▁mov
though
▁although
▁organiz
ize
▁offic
▁polit
▁polic
▁political
▁childr
▁children
▁men
enc
▁grow
establish
▁relig
action
anc
▁pract
▁toward
ither
gether
ith
uth
ody
▁mod
▁expl
▁express
▁reach
▁teach
▁$
ont
▁front
▁ret
▁return
▁rest
onom
conom
▁econom
ton
▁wom
omm
▁either
▁el
led
ited
▁United
▁always
▁away
▁early
ological
▁product
▁rev
pect
ences
▁perform
▁acro
▁mean
ange
ek
▁week
▁sk
ork
▁ele
▁ey
▁eyes
▁ever
igure
▁figure
▁wid
ially
▁talk
▁began
▁rece
▁spec
▁profess
▁put
formation
icult
▁difficult
wh
hn
▁john
▁sw
▁quite
empt
▁approach
▁means
▁cur
▁caus
▁carr
▁took
ately
▁meet
▁street
▁fri
▁friend
ich
▁entire
▁remember
thod
▁method
▁meas
ohn
▁John
oy
▁employ
iety
▁except
▁ext
tim
▁provid
istr
▁distr
ffort
▁effort
▁exist
▁mus
▁whose
▁country
▁min
▁run
▁Mr.
▁Mrs.
▁secret
▁matter
▁move
▁6
▁anything
emp
▁temp
▁death
▁eas
▁material
cr
▁descr
ccess
▁success
▁feet
▁prin
▁princ
▁princip
▁Comm
▁book
▁proper
▁mon
▁month
▁mind
▁wind
▁speak
▁ground
▁board
▁boy
▁suff
ves
elves
▁measure
istic
▁States
▁amount
aj
▁maj
▁major
▁mr
iction
▁six
▁af
af
▁side
▁too
▁o
▁establish
▁7
▁prom
▁electr
▁face
▁evidence
▁imag
▁vis
iously
▁invol
▁If
▁necessary
▁provide
▁miss
▁mil
ven
▁attempt
atur
ency
▁college
▁local
gress
side
te
▁here
▁hop
▁prob
▁probably
▁kept
▁unt
▁until
▁united
▁represent
▁plac
▁fac
▁saw
▁market
▁watch
▁got
▁black
truction
▁stock
tern
▁del
▁hel
▁help
▁writ
▁body
▁big
▁then
▁concern
▁morning
▁par
▁give
▁gave
▁activ
▁liv
▁hour
ailable
vailable
▁value
▁valu
▁recog
▁dev
▁rad
▁radi
aving
▁having
▁hold
▁past
iod
▁period
▁thir
▁describ
▁various
▁whe
▁whether
alf
▁half
▁called
educ
▁educ
pr
▁natur
▁taken
▁receiv
▁priv
▁brough
▁vol
▁require
▁sense
wn
▁10
▁indic
selves
▁themselves
▁const
elt
▁felt
▁free
▁camp
▁cover
▁stood
▁minut
▁letter
▁character
▁surf
▁surface
▁draw
ner
ier
ior
▁step
▁ver
urther
▁pur
▁purp
▁really
▁pop
▁project
▁discus
▁discover
▁subst
▁being
▁When
▁press
▁pressure
orn
ore
▁appl
▁music
ines
gin
▁begin
▁conv
uthor
▁main
▁pain
▁train
▁mill
ability
ten
eng
ength
▁underst
▁understand
▁love
atic
▁economic
▁control
▁specific
▁mother
▁full
inistr
▁administr
▁often
par
▁prepar
▁prec
▁regard
ilities
▁sometim
▁techniqu
▁brought
ead
ake
▁complete
▁community
▁city
▁arr
▁times
▁does
▁door
ches
oph
hind
▁behind
▁gir
▁girl
▁company
ury
▁century
▁production
▁demand
▁land
▁office
▁further
▁fre
▁gre
▁bre
▁break
▁15
▁usually
▁students
▁already
hap
▁perhap
▁tre
▁spir
▁spirit
▁prim
▁account
▁accord
▁recogn
▁Fr
▁produc
▁road
▁trad
▁tradition
▁experim
ages
▁beginning
▁attention
▁mar
▁contain
itution
▁assoc
▁associ
oub
oice
▁voice
▁ve
▁signific
ished
ved
▁million
rist
ristian
▁list
▁asked
▁reaction
▁sound
icture
erature
▁temperature
▁sup
▁sug
▁sugg
▁suggest
▁sum
▁sure
▁summ
▁test
ibut
ization
uff
body
▁believe
▁lib
abor
ibution
ting
▁relations
▁soc
▁society
▁done
▁institution
▁private
ym
▁sym
irm
▁firm
▁requir
▁They
▁phil
▁conduct
▁picture
▁pay
▁wif
▁religious
▁common
▁assum
ium
▁everything
▁line
▁looked
▁1960
▁met
▁swe
▁ident
▁ill
▁information
▁best
▁invest
▁committ
▁progress
truct
▁woman
▁opport
▁opportun
▁jud
▁standard
▁ty
▁type
▁typ
▁8
▁study
▁determin
▁doub
ouble
▁separ
▁frequ
just
▁court
▁Br
▁acros
▁across
▁occur
▁maintain
▁obtain
▁moder
▁modern
ung
unction
▁function
▁det
▁detail
ted
▁deep
aff
▁neg
▁York
▁york
▁tell
▁assign
▁dark
▁remark
▁nature
▁town
▁struct
▁section
▁defense
▁together
▁His
▁neigh
eral
ional
▁outside
▁decision
resident
enn
▁oppos
▁surpr
▁depend
▁department
▁squ
▁purpose
▁shall
▁wall
▁available
▁hist
▁history
tle
▁whole
▁int
outher
▁somewh
▁volum
head
▁instead
▁plant
▁corp
▁sal
▁personal
irection
▁happen
▁lear
▁learn
▁marr
▁12
▁milit
▁military
▁obv
attle
ling
idd
▁With
▁mom
▁moment
▁becom
▁resear
▁action
▁true
▁pat
▁pe
▁peace
▁involved
▁194
▁turned
▁leave
ne
▁property
▁seemed
▁cut
▁stopp
▁policy
▁leaders
uture
▁future
▁research
itch
▁obs
▁observ
▁doct
▁inf
lf
▁self
▁infl
▁influ
▁cir
▁circ
▁labor
▁window
▁concept
▁thus
clus
▁author
▁treat
▁third
fully
ouch
tter
▁better
ters
▁told
▁held
▁broad
▁visit
▁ir
▁mag
▁propos
▁clos
▁direction
▁farm
omp
▁brother
ology
▁air
▁join
▁popul
▁cre
reg
▁education
come
▁Some
▁agree
▁decl
▁enter
▁actually
chie
▁why
▁16
ene
▁We
▁women
▁earth
ources
▁attack
oud
ought
ger
get
tract
fact
▁things
▁square
▁patient
▁popular
raph
ograph
dd
▁sudd
▁sudden
▁ann
▁therefor
joy
▁enjoy
outhern
▁post
▁rock
▁countries
▁slow
▁allow
▁seen
greg
ugg
▁comb
▁hund
▁hundr
▁fund
▁fall
▁space
▁wife
▁responsibility
▁sometimes
ator
▁equip
▁equipment
▁mach
ists
▁President
▁sch
iddle
▁deal
rope
urope
▁alone
▁writt
▁famil
▁ant
▁quick
▁father
▁cool
▁mot
▁mone
▁money
▁else
▁making
▁ser
ives
▁color
avor
▁favor
▁En
▁Eng
▁impress
itud
▁attitud
▁remov
▁going
▁announ
ification
ination
",
osoph
▁philosoph
off
▁intern
▁international
▁today
▁impro
▁histor
▁wond
oot
▁ago
▁discuss
iam
▁district
▁fear
▁strength
▁feature
▁sit
▁situ
▁situation
▁pie
▁hot
▁wonder
▁finally
▁fail
▁norm
▁north
ford
▁engine
▁lo
▁To
▁building
▁coup
▁twent
ev
▁1961
▁qual
▁dead
chieve
▁collect
▁occas
▁difference
▁influence
▁grad
ital
▁bar
▁appar
▁assist
pec
pecially
▁neighb
▁occup
▁attend
epend
▁independ
▁heav
▁change
eign
▁fire
▁five
▁police
▁abs
▁generally
▁area
▁touch
oth
▁park
▁explain
erman
aut
▁beaut
▁beautif
▁tele
▁pap
▁contribut
▁sat
▁values
▁univers
▁university
▁perhaps
▁phy
▁phys
▁physical
ry
▁getting
▁lines
▁length
▁lim
aim
▁claim
▁sim
▁simil
▁similar
▁wa
▁wait
▁industrial
▁industry
▁English
▁english
let
ley
▁At
▁beautiful
▁earl
▁earlier
▁fil
ington
▁characteristic
▁illustr
▁professional
▁bene
▁text
▁17
▁wood
▁You
itive
▁effective
▁recomm
▁compet
▁minutes
▁moral
▁wild
▁decid
▁lower
▁desp
rop
▁democ
▁growth
▁experiment
▁div
▁lit
▁literature
▁complex
▁days
▁spr
▁sn
arily
▁neither
▁brok
▁doubt
▁capital
▁idea
▁center
▁hundred
▁scre
▁sol
▁blood
▁orig
▁origin
▁within
▁fell
▁kill
▁apparently
ential
ledge
▁knowledge
erence
▁Al
▁conver
▁congress
hood
▁food
▁detect
▁bill
urd
ivil
▁civil
attern
▁pattern
▁As
▁Ar
▁After
▁investig
▁25
▁obviously
utom
▁block
▁relationship
▁recommend
▁distribution
▁enc
cent
▁foreign
▁sens
io
oon
▁symb
▁symbol
ices
▁services
▁dom
▁feeling
▁conclus
graph
▁basis
▁official
▁address
son
▁scient
icient
▁sufficient
▁lost
▁running
▁therefore
ute
▁poet
▁wide
▁truth
▁adjust
▁cell
▁science
▁curr
▁Of
▁spok
ival
▁south
▁middle
▁compar
▁eight
▁One
ee
▁committee
▁structure
▁vir
ode
▁god
▁reflect
▁select
▁season
ountain
▁written
▁wrong
▁centr
▁central
idge
▁basic
▁shown
▁doll
▁dollar
▁mass
▁planning
rod
▁introd
ames
▁quiet
ros
ross
▁cross
▁cal
▁es
▁especially
▁trial
▁command
▁slight
▁carried
iate
▁low
▁How
▁below
▁simple
▁simply
ensive
ension
▁areas
aster
ases
▁cases
▁ideas
ister
▁miles
,000
▁piece
▁clean
▁flo
▁floor
▁brown
▁gone
ump
port
▁activities
like
▁recently
azz
▁liberal
ederal
▁federal
▁satis
▁population
▁natural
▁performance
▁seems
▁activity
encies
isc
▁ter
▁terr
▁throughout
▁relative
umb
-f
▁glass
▁makes
▁division
▁What
▁crit
▁mrs
▁hands
▁age
road
▁cold
rem
▁extrem
▁perm
ustom
leas
▁pleas
▁whom
▁aff
▁eff
ground
▁recent
▁pick
▁acqu
▁regular
upp
uce
▁drink
▁extend
▁opportunity
▁facilities
▁thr
ift
aft
▁govern
▁movement
udience
▁ess
eness
▁benef
▁appropr
▁super
▁comfort
▁secretary
▁event
▁stress
▁demons
▁Ind
ird
▁Miss
▁creat
▁threat
▁limited
▁limit
ench
▁numb
▁numbers
urb
pital
ospital
▁pieces
▁magn
br
▁However
▁technical
▁tried
▁chair
▁serious
▁judg
▁heart
▁That
▁treatment
▁z
▁seven
▁election
▁easily
▁disp
▁disapp
▁able
▁formul
ufact
▁manufact
▁thirty
▁dre
▁dream
▁arg
▁club
▁administration
zz
▁encour
▁blue
▁hope
▁forces
▁scientific
▁final
▁mere
aught
▁importance
ify
▁fif
▁fill
▁Then
▁applied
▁emot
▁tend
ians
▁commission
▁win
ape
▁democr
▁increase
gree
▁degree
▁cult
▁corner
▁proc
ec
ashington
▁Washington
▁30
▁20
▁force
ides
▁student
▁sent
▁hair
▁God
▁legis
▁legisl
▁All
▁twenty
▁carry
▁unc
estern
ables
▁rom
▁9
▁ed
▁est
▁estim
▁immed
▁obvious
▁skill
▁100
▁displ
▁charge
ument
▁demonstr
▁suddenly
▁required
▁pull
▁image
▁table
▁prevent
▁continue
▁11
▁film
▁symp
ues
▁bu
angu
▁langu
▁sales
ann
ane
▁emph
osph
▁lay
▁circum
▁circumst
▁circumstances
▁following
▁solid
▁hospital
▁eye
▁che
▁check
▁base
▁nations
▁interv
astic
▁somewhat
▁emphas
▁suit
▁west
▁heard
▁possibility
▁possib
▁thick
▁fair
▁affair
▁particip
▁ship
▁nuc
▁nucle
▁member
▁Thes
▁These
tegr
rote
▁wrote
ropp
▁Pro
▁language
▁stage
▁prot
▁contract
▁autom
athe
unk
▁gun
▁lack
equ
▁problems
▁determine
▁trade
▁trave
▁try
▁trouble
ert
erg
▁energ
▁emerg
▁paper
▁custom
▁produce
▁No
▁variety
err
▁los
▁compos
▁frank
▁occurr
▁flow
▁religion
▁provision
▁meaning
▁meeting
▁immedi
▁immediately
▁immediate
town
▁manag
ague
▁exact
▁paid
▁corpor
verage
▁1959
urg
▁measur
▁thous
▁thousand
▁manner
▁Christian
ires
iol
▁viol
▁vari
▁pool
athol
atholic
▁living
▁range
▁choice
▁percent
▁county
ah
▁manufactur
▁pot
▁potential
▁essential
▁normal
▁exce
▁ball
▁quality
▁coll
▁frequently
▁opin
▁collection
▁worth
rup
ired
▁Or
▁hotel
▁constant
▁substant
▁myself
▁herself
▁ten
▁Q
▁applic
▁stat
eric
▁Americ
▁americ
▁amb
ler
▁sort
ortion
▁teleph
▁brief
▁chief
▁belief
▁party
▁existence
ural
▁model
▁revolution
▁review
▁interview
▁green
ously
▁words
▁series
▁serve
▁consequ
▁construction
▁consist
orm
amm
men
▁wanted
▁rich
▁electron
▁repl
▁sil
▁esc
▁yell
▁fellow
▁concent
▁dropp
▁poem
othe
▁concentr
▁stay
▁staff
▁ste
▁story
▁minim
int
▁domin
ale
▁pret
ories
▁spect
▁spread
▁sun
▁Cong
▁Congress
▁sex
▁saf
▁shar
epartment
▁communic
▁pretty
▁longer
▁carefully
work
wer
swer
▁answer
▁coop
▁statement
▁har
▁laugh
teen
▁colum
▁column
▁192
▁river
▁scene
▁vict
▁novel
▁christian
▁publ
▁ox
▁oil
ux
▁successful
▁trip
▁leadership
▁differences
es,
hib
▁burn
tra
by
▁convention
▁live
▁foot
▁14
ompan
▁merely
▁improve
▁prote
▁defin
▁annual
▁actual
eg
▁occasion
▁State
▁rate
▁narr
tal
▁total
▁surv
oint
arch
▁search
unch
▁sharp
▁optim
▁liqu
▁positive
▁England
ection
▁inde
▁belong
▁furn
▁experi
▁cop
▁appropriate
▁radio
▁expected
leep
▁offer
▁neighbor
▁neighborhood
▁clothe
▁contrast
time
owd
▁crowd
▁marri
▁married
▁marriage
▁write
▁latter
▁arch
room
▁organization
▁particularly
ottom
lin
iform
aith
▁faith
avior
▁approx
havior
▁according
ison
ais
▁rais
▁critic
▁summer
▁protect
▁ut
▁vot
▁den
▁surpris
ipt
cious
resh
agement
▁boat
▁box
atory
▁listen
acy
▁purpos
▁Europe
▁europe
itting
▁Department
▁scr
unday
▁east
atives
▁strugg
▁roll
▁unit
▁excell
▁machine
▁restr
▁corres
▁corre
▁opinion
▁extent
▁suffer
▁impos
▁previous
▁volume
▁Ad
▁mention
▁greater
▁approxim
axim
▁maxim
ship
▁possess
▁hall
▁Will
▁William
▁hor
▁horse
▁anyone
▁distance
▁distin
erc
▁exerc
inc
▁exc
▁perf
▁perfect
craft
▁uniform
▁fisc
▁fiscal
▁inside
▁believed
▁famous
ouse
▁couple
▁elements
▁buil
▁built
▁non
osphere
where
▁breath
▁voc
▁size
▁vocational
▁50
▁sold
▁sleep
▁sof
▁sing
▁single
ators
▁reduc
ony
▁soon
ric
▁1958
-d
▁arrange
▁pref
▁satisf
▁nearly
pre
▁interpre
▁Even
▁price
▁adequ
▁descript
▁stra
▁straight
▁fight
▁democratic
ask
▁correct
▁distinct
▁Government
yond
▁beyond
▁exec
▁significant
▁bridge
▁bring
▁including
lectual
▁neck
add
▁bad
▁enem
▁stop
▁dog
▁politic
▁element
iveness
▁fifty
▁fifteen
▁seek
ants
▁Commun
▁status
▁wheel
▁shot
▁buy
▁jazz
ares
▁mouth
▁song
▁emotional
▁transf
▁jack
obile
lection
▁published
▁corresp
▁correspond
▁display
▁companies
try
arger
▁larger
▁bright
▁secur
▁principle
▁gain
jection
▁sus
▁taking
▁waited
▁From
▁yard
▁england
▁painting
aly
▁analy
▁management
▁House
offee
▁agreement
▁charg
cript
▁maximum
▁followed
▁di
▁dress
▁due
▁contribution
▁received
▁South
▁benefit
▁edit
▁changes
▁index
▁current
▁western
▁wish
▁evident
▁directly
▁recognized
▁developed
▁started
aves
▁nation
gregation
▁adver
▁protest
▁accompan
▁hear
▁leaving
▁entertain
▁23
▁push
▁aircraft
▁assemb
▁events
ties
▁soft
▁Rep
▁slowly
usion
nection
▁connection
▁dram
▁coming
▁$1
▁moved
▁encoun
au
▁De
ey
▁easy
▁despite
▁practice
▁game
▁schol
hington
alth
▁health
▁upp
▁proced
▁procedure
▁jun
▁Not
▁Kenn
▁studies
omb
▁bomb
▁Church
▁purch
iation
▁bank
▁Rob
▁murd
▁French
▁reached
▁red
▁exhib
▁extra
▁nuclear
▁exam
▁electronic
▁key
▁hy
▁hyp
▁hon
imin
▁transport
▁191
▁193
▁strange
lex
ox
▁Ex
▁Tr
▁additional
▁caught
▁chance
▁objective
▁training
uit
ivity
ailroad
uss
▁Russ
▁russ
▁argument
▁Robert
ique
▁original
▁vac
▁capac
▁capacity
▁trying
▁late
▁achieve
▁certainly
itted
band
usband
▁husband
▁German
▁german
▁compl
mber
bert
wood
rupt
ellectual
▁intellectual
udd
▁approximately
▁contact
anger
▁danger
▁warm
▁trust
ived
▁kenn
▁kitch
▁failure
▁Christ
▁refus
▁conscious
▁finished
▁protection
▁fine
▁advant
▁indicated
▁team
▁higher
orge
eorge
▁devot
▁controll
▁walked
hode
sh
▁fresh
▁comes
tic
▁decided
aturday
▁susp
▁added
▁assistance
▁son
▁samp
▁southern
▁sides
trument
▁behavior
▁emb
▁Nor
▁Neg
▁Negro
▁Now
odd
▁cause
▁request
▁construct
▁consum
aily
▁daily
ata
▁data
▁America
▁opposite
▁honor
▁discussion
theless
▁frame
▁24
▁brush
orney
anch
▁mech
▁mechan
▁fix
▁musical
▁satisfact
▁North
ception
▁clim
▁average
▁editor
▁former
▁cooper
▁gives
▁requires
▁spot
▁lot
▁Man
▁'
▁Con
▁Cl
▁escape
field
▁conference
▁mission
ource
▁urg
▁bottom
▁appre
▁veh
▁vehic
here
▁however,
▁reve
▁reveal
▁ang
agg
ament
▁christ
▁National
▁educational
▁fundament
▁background
▁usual
▁doctor
▁radiation
▁completely
▁dest
▁destro
▁destroy
▁french
▁advantage
▁extreme
urr
co
oard
▁round
aughter
▁months
hold
▁West
ounc
▁inc
▁incident
▁resident
▁load
▁U.
▁U.S
▁requirements
▁factors
▁master
▁considerable
▁shape
▁studied
cul
▁calcul
▁Gr
▁libr
▁experienc
▁mem
▁memory
▁valley
▁virgin
▁virt
▁source
▁depart
▁resources
▁sources
▁names
▁clearly
chieved
▁subm
▁excess
▁scholar
▁spring
▁reference
▁referr
▁err
celer
▁acceler
urban
▁Although
▁operation
▁odd
partment
part
▁install
▁intens
▁intell
▁intellig
▁heavy
es.
▁Republic
▁republic
▁accur
▁accom
▁accompl
▁deb
ball
▁introduc
oviet
▁plat
▁platform
aint
aul
asons
▁reasons
▁operating
aged
agon
oid
void
ole
ille
ville
▁role
ett
▁imagination
ession
▁union
ashion
▁fashion
▁edge
well
▁aw
▁aware
wise
▁driv
▁prison
▁disturb
▁william
itiz
▁citiz
▁citizens
izing
▁execut
▁sitting
▁facult
▁gas
▁"Th
▁permit
▁cloud
▁active
▁drive
▁receive
▁danc
▁guard
udget
▁ep
-c
▁announc
▁properties
▁Since
▁Se
▁Secret
▁Secretary
▁primary
▁primarily
be
▁narrow
▁include
▁promot
▁guest
▁respond
▁conditions
▁types
▁(1
▁becomes
▁authority
▁cattle
▁battle
▁Col
▁sweet
▁washington
▁ability
▁precise
oul
ouis
ivers
▁parents
▁freed
▁freedom
▁indeed
▁desire
▁resist
▁march
change
▁exchange
▁exclus
▁convinc
▁distinction
▁rul
▁responsible
ourn
▁dramatic
▁ign
aign
▁campaign
▁membership
onscious
▁murder
▁kitchen
▁corporation
▁energy
▁hill
▁hyd
▁none
▁telephone
▁naturally
▁electric
▁quar
ipped
ed.
▁universe
▁expression
▁born
▁bal
▁balance
▁bit
▁bird
▁significance
▁equal
per
▁session
▁declar
▁weak
▁resolution
▁solution
▁justice
▁heavily
▁hours
▁attorney
▁likely
▁liter
▁literary
▁principal
▁principles
▁share
▁yes
▁yield
▁yester
▁yesterday
eneral
▁General
▁proce
akes
itute
▁merc
▁contemp
▁stream
▁divid
▁recall
▁exactly
▁liquid
▁constitution
),
).
▁13
iar
▁familiar
▁star
▁whate
▁whatever
pir
▁Federal
▁island
chestra
▁attitude
▁knif
▁mult
▁multip
▁&
▁forward
▁cities
▁hom
rel
▁acad
▁academ
▁conce
▁robert
▁enemy
▁Act
▁previously
▁audience
etry
▁poetry
▁poor
▁match
▁agre
▁america
▁related
50
roll
▁negro
ptember
▁substantial
▁jew
▁smil
▁instance
▁attract
▁intention
▁separate
▁shop
▁adop
▁mis
isk
▁experiences
ime
ultim
▁ultim
▁consult
▁repe
▁empt
ption
▁ideal
▁security
▁association
▁aspect
apid
▁rapid
iment
▁experiments
▁clay
▁cris
▁crisis
▁grand
cient
▁distribut
burg
▁pan
▁panel
▁altern
▁respon
▁response
▁necessarily
▁looking
▁officers
▁officer
year
ych
sych
▁psych
▁entr
▁assess
▁mess
reek
▁lock
▁la
▁Mar
unt
irt
irth
▁birth
▁repeated
▁others
▁elimin
▁understanding
▁writing
oto
▁photo
▁photograph
▁sensitive
ordin
erve
vey
▁survey
▁sport
▁counter
▁Univers
▁captain
▁mix
▁med
▁medical
board
▁arrived
▁Ph
▁Phil
▁switch
▁indicate
▁terms
▁stret
▁stretch
ushch
ushchev
rushchev
hrushchev
▁interpret
▁operations
▁everyone
▁ready
▁reading
▁rates
▁magaz
noon
▁afternoon
▁cook
▁coffee
▁bitter
▁double
mosphere
▁recognize
▁commer
▁commercial
ancial
▁financial
ery
yn
yl
▁upper
pap
▁equival
▁families
▁supply
▁childhood
▁vital
overeign
▁task
▁anim
▁animal
imm
▁snow
▁hung
▁tee
▁teeth
▁"I
▁top
▁host
▁minimum
▁reduce
top
▁beneath
▁blind
▁takes
▁Dr
▁truck
▁ordin
rove
roop
▁troop
▁grant
▁suppl
sue
▁issue
▁stopped
▁Soviet
▁agencies
oke
▁Be
▁Other
aries
▁baseball
itish
▁British
▁Brown
▁british
▁hol
arm
inner
▁dinner
▁22
▁conviction
▁understo
▁understood
▁surr
▁drew
light
▁weight
▁sight
▁improved
▁budget
▁0
▁Thus
▁sell
▁policies
▁apprec
▁trail
▁unique
▁twice
▁flat
▁learning
▁concerning
▁Another
▁mainten
▁typical
▁thinking
▁bul
▁bullet
▁ful
▁traff
▁combination
▁provided
▁disappear
▁interf
▁meant
▁somewhere
▁restrict
▁otherwise
▁shoot
▁atmosphere
▁increased
▁increasing
▁costs
▁suspect
▁env
▁analys
▁analysis
▁relief
▁hydro
iforn
ifornia
▁rose
▁spend
itude
▁First
▁fast
▁strik
▁loose
omas
▁moving
▁techniques
ottle
▁bottle
▁Southern
▁extensive
▁bur
ured
▁appe
▁appeal
ender
▁remind
▁him.
▁cand
▁candid
▁hit
▁determined
▁considered
▁pack
▁needed
▁cutting
then
▁railroad
rew
▁growing
▁rif
▁rifle
ney
▁machines
▁manager
ause
▁loss
▁historical
▁ourselves
▁log
▁practical
▁mountain
▁stead
anced
▁concerned
▁winter
ively
▁sexual
▁spent
▁troub
▁Jew
ule
▁culture
▁placed
▁passed
nect
▁connect
▁Char
ubb
▁expert
▁schools
▁ins
▁instrument
▁insist
▁instruction
▁surround
ront
▁confront
▁eg
▁anode
▁plastic
▁Yet
▁delight
▁roof
uous
▁avoid
class
odies
▁feed
▁reserv
▁quickly
▁shel
▁shelter
uzz
▁judge
▁George
athetic
fortun
▁fun
▁poly
▁pock
▁relatively
▁rise
▁trem
▁gold
-m
▁realized
een
eenth
▁director
▁bond
▁suppose
▁suppos
▁medium
▁mount
cember
▁maintenance
abb
▁fat
att
▁remove
▁Car
▁minister
▁automobile
▁realize
▁chap
▁rout
▁presence
▁plain
▁plane
▁kid
spap
▁newspap
▁er
▁path
▁excellent
eless
▁defend
▁sky
▁sympath
▁arrang
▁ancient
▁useful
▁fully
uary
▁ordinary
section
▁et
▁moon
▁Pl
▁impl
▁impact
▁rough
▁rid
▁mid
▁integr
▁exercise
▁dust
ugust
▁hardly
▁slightly
▁60
▁21
crib
iber
▁lad
▁lov
▁pocket
▁neu
▁net
▁network
▁sett
▁settled
▁neutr
▁youth
▁conclusion
▁gather
▁weather
▁george
-p
egre
▁practices
▁promis
▁permitted
▁philosophy
▁interior
▁conserv
icip
▁anticip
ges
▁deliber
▁deliver
▁region
uly
▁conclud
ault
▁described
▁presum
▁preserv
▁formula
iers
▁soldiers
▁created
▁May
ondon
▁envir
▁prior
▁based
▁independence
▁independent
▁soul
▁entirely
▁spiritual
▁Commission
▁happened
▁places
▁domest
▁signal
▁unless
▁giving
ournal
house
look
uel
uge
▁gradu
▁advert
▁gradually
▁assignment
▁Thomas
▁nevertheless
▁provides
ina
inet
▁ninet
▁nineteenth
ins
▁thin
▁machin
▁machinery
▁race
▁regul
▁Pr
orr
orrow
▁"the
▁setting
▁traditional
▁lives
▁lived
roph
urance
▁entrance
▁concret
▁dominant
antic
iant
▁profit
▁atom
▁advanced
▁advance
▁estimated
▁appeared
▁advis
viet
▁soviet
▁rever
▁reb
▁climb
▁shout
▁plann
▁jump
▁treated
▁react
▁traffic
▁intend
▁urban
▁intense
▁artic
▁advertis
▁War
▁knife
▁ran
▁rang
▁expos
ott
▁Jun
▁believes
▁hypoth
▁phase
▁depth
ures
▁cultural
▁negative
adow
▁shadow
how
▁somehow
▁abroad
yro
▁thyro
▁thomas
▁proportion
▁organizations
▁count
▁counc
▁council
▁suc
▁succe
▁served
▁showed
▁societ
▁greatest
▁daughter
▁encounter
▁accident
venue
▁Ed
traction
lor
▁Bl
▁stick
▁rain
▁attach
▁achievement
iest
▁comment
▁More
▁laid
▁Just
▁administrative
▁travel
▁prices
▁suprem
▁score
▁gard
ternal
▁faculty
que
▁spoke
gl
▁obl
▁oblig
▁fruit
▁rule
ipl
▁proud
▁enfor
▁vehicles
amb
▁trees
▁ultimate
▁adequate
▁crack
▁cry
▁army
▁sty
▁style
▁someone
▁ignor
▁waiting
▁scale
▁competition
▁grew
▁superv
▁junior
▁superior
▁message
▁cast
▁evil
culiar
aneously
▁Western
▁domestic
iplom
▁weap
▁speed
▁spee
▁speech
▁stepp
ke
olk
▁folk
▁concert
-h
▁opportunities
▁motion
▁obtained
▁efforts
▁journal
▁writers
▁yellow
▁While
▁White
burn
▁gray
iday
▁simult
▁simultaneously
aces
ees
▁employees
▁judgment
▁continued
acr
▁sacr
ron
▁syn
▁grass
▁dropped
▁anti
▁chairman
▁Jack
▁plus
▁tub
▁surprise
▁throw
▁happy
▁smell
▁Here
anover
▁weakness
▁reject
▁library
▁East
dom
claim
▁sav
▁economy
▁thro
▁stain
▁stor
▁organ
▁expend
▁expand
▁eventually
▁uncertain
▁critical
ets
▁learned
▁everybody
▁University
▁reality
pril
▁lip
▁numer
▁communication
▁Frank
▁mail
▁device
▁Catholic
▁catholic
▁prepared
▁margin
irgin
▁Virgin
▁selection
▁pray
▁application
▁honest
lock
▁income
▁Committ
▁vill
▁village
illiant
▁brilliant
▁minor
▁afford
ones
▁tour
▁send
▁practically
▁struggle
lease
▁powerful
thetic
▁earn
▁reported
▁struck
orough
▁thorough
▁friends
akespe
▁contempor
▁contemporary
▁apply
ricult
▁agricult
▁por
▁threw
ictionary
▁seriously
abric
▁fo
▁foam
▁cat
tribut
uesday
▁opened
▁dim
▁dictionary
▁artist
▁billion
▁raised
▁using
bruary
▁included
▁abstract
▁diame
▁possibilities
▁equally
▁emphasis
isto
▁register
evit
▁engaged
▁traged
▁truly
▁nam
etition
▁proceed
▁ahead
▁However,
enry
tery
olute
▁absolute
▁associated
▁purchase
aud
udson
aise
▁results
▁located
▁spl
▁coast
▁methods
▁purposes
▁ce
▁bound
▁Qu
▁fourth
val
▁approval
▁pal
▁pound
▁pitch
▁instant
▁replace
▁catch
arget
▁target
▁bus
▁bodies
▁circl
▁scholarship
▁reduction
obb
▁rob
▁sen
ened
gen
zen
mans
▁expans
ma
▁operator
▁girls
▁port
▁U.S.
▁guid
▁engineer
▁dozen
▁goal
▁moments
▁dry
▁drunk
▁intensity
ern
▁Every
aur
▁restaur
itation
itz
ze
izz
▁tit
▁title
▁eth
▁definite
▁vote
▁affect
▁trend
▁unlike
▁drove
▁blank
▁sovereign
▁communism
▁Tw
▁fabric
oles
ateg
leg
apan
▁vision
▁examples
▁agency
▁compon
▁components
▁boys
oseph
▁stations
▁store
▁card
▁pleasure
▁adult
▁yourself
▁comparison
▁established
▁filled
▁designed
▁warr
arry
▁cow
▁Each
▁By
abilities
ancy
ancisc
onday
ined
▁diplom
▁desk
lict
▁conflict
▁confidence
▁aid
ef
▁evening
▁unf
▁rare
▁anti-
▁drawn
▁corn
agn
▁apparent
▁americans
▁convict
▁registr
▁etc
▁editorial
▁effic
▁governor
▁mechanism
mouth
ago
icago
▁Chicago
▁academic
apt
▁shr
▁nodd
chester
▁apartment
▁rapidly
▁precision
▁peculiar
ewhere
▁prep
▁efficient
▁substantially
▁garden
▁tendency
▁warning
▁flash
▁writer
omial
▁entered
▁enterpr
▁personn
▁personnel
ayburn
▁broken
▁broke
▁So
▁drug
▁assumption
▁mold
▁bes
▁beside
▁besides
aced
▁replaced
▁recover
▁Such
▁horiz
▁proposal
ocr
emocr
▁Democr
empl
▁closed
▁shift
▁shock
▁hydrogen
arg
▁involves
▁expense
▁expensive
▁jury
abit
▁habit
▁cab
▁chem
▁item
▁chemical
iency
▁efficiency
▁tast
▁vast
▁vary
▁enorm
▁fem
▁female
▁portion
▁agricultural
▁Committee
▁interference
erlin
ving
▁situations
▁tension
▁mist
▁mer
▁40
akespeare
cle
▁muscle
▁primitive
▁huge
▁shook
▁approved
olved
▁victory
▁identification
▁pure
omin
com
▁accomplished
▁involve
▁inform
▁aband
▁abandon
▁relax
▁iron
▁location
▁died
▁settle
▁loud
▁easier
▁ou
▁Z
▁factor
▁neutral
▁Charles
▁beauty
▁access
▁acres
▁hun
▁hang
▁tang
▁hors
▁doing
▁elabor
aire
▁environ
▁environment
▁capable
▁gall
▁Louis
▁louis
0000
▁nine
▁nav
▁circle
▁enth
▁enthus
▁enthusi
▁needs
nown
known
▁expansion
▁anx
▁anxiety
▁criticism
▁standing
▁lie
▁teachers
▁teacher
▁psychological
rol
▁intelligence
▁working
aking
ishing
egrees
berg
▁executive
▁regional
▁file
▁drop
▁changed
▁remained
▁sea
▁artery
▁romantic
▁conj
▁congregation
▁retain
▁recre
▁"W
▁hypothe
▁entit
▁entitled
lev
▁victim
▁description
ression
▁cheek
▁highly
▁highway
-b
▁harm
▁increases
▁throat
▁nearby
▁sand
▁sympathetic
▁lunch
while
▁reform
▁categ
▁strateg
▁identified
▁identity
▁returned
▁arms
century
▁reflection
ope
▁liber
▁produced
▁contrary
▁possibly
▁palm
▁announce
usual
▁unusual
use
▁metaph
▁Communist
▁joy
▁metal
▁pred
▁predict
▁telev
▁television
▁fright
▁dut
▁penn
▁impression
▁risk
▁visual
▁colon
▁reasonable
umbled
▁headqu
▁headquar
▁headquarters
▁kenned
▁kennedy
▁lady
▁station
atically
▁cub
riet
inted
ointed
▁appointed
put
▁colleges
▁aggress
▁Sunday
▁sunday
▁eval
▁evalu
▁persu
▁legal
▁Japan
▁japan
▁financ
▁smile
▁smo
▁smooth
▁fundamental
▁Kenned
▁Kennedy
▁angel
▁fraction
▁suggested
▁fixed
▁Rhode
▁rhode
▁putting
▁flight
erson
ston
▁tremend
▁gent
▁gentle
▁proposed
▁numerous
▁communist
ette
agger
▁rot
▁rod
▁controver
▁capt
▁foc
▁focus
▁cryst
▁technology
▁quant
-year
▁sample
▁unknown
▁telegraph
▁letters
▁safe
▁careful
▁technique
▁represents
▁content
▁conven
▁Arm
▁named
▁covered
▁grave
▁utter
▁objection
lfare
▁caused
▁confirm
▁launch
▁safet
etic
▁workers
amber
▁recognition
obby
▁weeks
▁establishment
unicip
▁Park
▁confusion
▁knock
▁tract
▁detective
▁impressive
▁questions
ecause
argest
▁largest
▁orders
▁petition
▁Two
▁convers
▁majority
▁providence
asc
exas
clos
osition
▁definition
▁spons
▁subs
▁fool
▁rules
▁weapons
▁weapon
▁virtually
▁football
▁residential
▁tone
▁stories
▁whisk
▁wit
▁witness
▁expendit
▁expenditures
omen
enomen
▁phenomen
▁electrical
▁illusion
▁guess
▁guil
▁pil
▁pilot
▁prem
▁adoles
▁internal
▁article
▁varied
er,
orld
▁World
▁neglect
▁negot
▁champ
▁date
▁insurance
▁satisfactory
▁automatically
ers,
ed,
▁course,
ades
▁invent
▁interpretation
▁san
▁sem
▁Dur
tober
usett
achusett
▁bath
▁strain
▁strip
▁norther
▁Dr.
▁gar
ovember
▁statements
▁fiction
▁fig
▁adopted
anuary
▁James
▁games
▁james
▁simpl
ervice
right
ylv
ylvan
ylvania
▁spectac
▁ge
▁gro
"?
▁desired
▁doctr
▁conventional
▁wagon
ography
▁merch
inch
▁persist
▁absence
manship
▁scar
▁wine
stand
▁band
▁houses
▁accomplish
▁sched
▁schedul
▁schedule
▁schem
ky
▁preserve
▁equivalent
▁tables
▁appearance
▁dance
▁$2
▁payment
▁empty
▁presumably
gun
go
▁context
ats
▁swung
▁flu
▁wil
▁inevit
imony
▁testimony
▁confus
▁strike
▁humor
▁fit
▁pale
▁decreas
▁nerv
▁exercis
▁tempor
▁chos
▁chosen
▁chamber
▁driver
▁River
▁bare
▁burd
▁During
umber
▁maybe
▁horses
-s
▁ought
▁resistance
▁wave
▁sought
organ
orp
▁Corp
▁blow
▁introduction
iated
▁spite
▁denied
▁cloth
▁31
▁barr
▁eleven
▁admitted
▁reception
▁hole
ulation
point
▁appoint
▁Americans
▁league
▁lean
▁announced
▁burst
▁strict
▁motor
▁acceptance
▁accepted
▁encourage
▁sentiment
▁restaurant
▁institutions
igr
hower
enhower
isenhower
▁silence
▁involving
▁percentage
annel
▁orchestra
▁sin
oose
ociation
▁extension
fore
ien
▁alien
▁ec
▁wonderful
▁choose
▁particles
ometer
▁qualities
issue
▁wat
▁waters
▁wished
▁missile
▁promise
▁prompt
▁promin
▁root
▁vacation
▁difficulty
▁hur
▁points
▁societies
ensions
▁Prov
▁Providence
▁emotion
▁Cour
▁Court
▁opinions
▁Her
her
▁id
▁charles
▁estate
▁diameter
▁quarter
▁supplies
▁chapter
▁frequencies
▁artists
▁steps
▁millions
▁opposition
▁prove
▁pros
▁prospect
▁persons
▁steel
▁Rich
▁Richard
he
▁save
uto
▁communities
▁thyroid
avid
▁languages
▁occasional
▁pair
▁stair
▁repair
▁doctrine
▁stranger
▁streng
▁1957
▁bron
▁bronch
▁ly
▁u
▁utop
ued
▁shut
▁closely
▁reven
▁advice
▁faces
▁bab
▁delay
▁cele
▁celebr
▁curve
▁destruction
▁richard
ra
▁irr
30
▁automatic
▁marked
▁funds
▁thickness
▁quot
▁combined
ulated
▁liberty
sequ
▁subsequ
▁purchas
▁survival
▁stated
▁extraordin
▁coordin
▁edition
▁flex
▁Alex
▁Before
▁ease
▁Democratic
▁Khrushchev
▁khrushchev
▁hearing
oom
▁(A
▁wash
▁measurements
▁dollars
▁leaves
▁waves
▁March
▁violence
▁tall
▁taste
▁assume
▁metrop
▁raise
▁ballet
▁tree
▁favorite
▁site
▁phr
▁phone
▁cock
▁"The
▁breakf
▁breakfast
▁grown
▁Union
▁brain
▁refr
▁refrig
▁imposs
▁impossible
▁bed
▁bedroom
▁Compan
▁swift
▁mir
▁objectives
▁occasionally
▁accuracy
▁soldier
▁tough
▁planned
▁hypothal
▁hypothalam
▁tal
vember
▁older
▁surrender
▁render
▁track
▁Club
▁valuable
▁indicates
▁charm
▁mal
▁causes
▁agreed
▁angle
▁Colle
▁College
lement
▁supplement
entially
▁essentially
▁poll
▁civilization
▁equipped
▁adj
▁Aj
▁egg
▁decade
▁explan
▁reduced
▁consequences
iences
▁phrase
incol
incoln
▁devices
issipp
▁generation
▁chicago
ompson
▁investment
▁offered
▁transform
▁conform
▁assured
▁Sp
▁emergency
iable
▁relation
ama
▁Old
▁unfortun
▁transfer
▁Black
idden
▁visited
▁rush
▁ris
▁Moreover
▁moreover
▁cup
▁it.
▁expens
▁wage
▁archit
▁architect
▁suburban
▁soil
▁allowed
▁picked
▁figures
▁sail
▁prepare
▁congreg
ental
▁severe
igor
▁vigor
▁profound
▁wound
▁absor
▁teaching
▁diagn
▁imagine
▁taught
▁completion
▁metropol
▁1954
▁peop
▁peoples
▁treas
enetr
▁London
▁london
▁exception
▁programs
aret
▁marsh
▁commerce
rest
aken
▁screen
▁prefer
▁conversation
▁libraries
▁curious
▁grace
▁providing
▁ho
▁senior
terior
▁veter
▁magnific
▁sho
▁shares
▁admission
▁70
athem
▁mathem
▁mut
▁buck
▁bought
▁shap
cience
▁conscience
oices
▁preparation
▁tissue
▁representative
▁legislative
▁gh
▁*
▁passage
▁slaves
▁fasc
▁considerably
▁inevitably
-r
-l
-st
-1
▁189
▁(19
▁plot
▁roy
ny
▁duty
▁oce
▁chain
gain
▁gross
iological
▁implic
olf
-w
▁screw
▁preach
▁magnitude
▁smoke
▁minute
▁fought
▁privile
ri
▁wore
▁Re
▁royal
▁flowers
organiz
▁rank
▁concrete
▁competitive
▁candidates
▁transferr
▁porch
▁welfare
▁suburb
▁everywhere
▁dam
▁twist
▁tragedy
▁priest
▁propag
▁representatives
▁scream
▁Virginia
▁accompanied
▁baby
▁skin
▁physic
▁highest
▁effects
▁guide
▁currently
▁authorities
▁util
▁utility
▁sponsor
▁genu
▁genuine
▁marine
▁prevail
▁territ
▁effectiveness
stitution
▁penetr
▁puzz
▁grain
▁pow
▁powers
▁payments
▁separated
▁emotions
uments
▁silent
vent
▁sevent
▁transl
▁enormous
▁eat
▁stages
itial
▁initial
▁exhibit
▁disting
▁distingu
▁distinguished
iving
▁create
▁funeral
▁universal
▁universities
▁municip
tray
▁assumed
▁supposed
▁Russia
▁Russian
▁removed
▁succeed
ibr
ylind
aze
▁chest
▁plans
ongue
▁tight
▁corps
morrow
allas
▁loan
▁reorganiz
▁wear
▁talent
ctor
▁hat
▁bear
▁rear
▁measured
▁difficulties
▁November
▁strengthen
thentic
▁sick
▁myth
▁Stre
▁Street
▁voices
▁churches
▁safety
▁nobody
▁integration
▁begun
▁tear
▁watched
▁watching
▁twel
▁twelve
▁burden
▁unity
▁thrust
▁thrown
▁soph
▁sophistic
▁transition
eff
efferson
▁Off
ieff
ofieff
kofieff
▁features
▁talking
▁mic
▁clothes
▁products
▁groups
▁edges
▁pleasant
▁worr
▁worry
▁worse
▁worship
▁fellowship
▁perspect
irty
▁neighbors
▁coating
▁played
▁playing
▁virginia
▁Har
▁newspaper
▁stim
▁stimul
▁counties
▁calend
▁calendar
▁california
▁milk
▁goes
uries
▁centuries
▁tongue
▁26
▁27
▁discour
▁discipl
▁external
▁feather
▁concentration
▁systems
▁horr
▁employment
▁crew
▁Where
▁rh
ham
▁cam
ald
▁Af.
▁explanation
▁liquor
ander
▁brand
▁propagand
tun
▁fortun
▁volun
▁volunte
oston
▁creative
▁stem
▁stone
▁Many
▁adam
back
▁becoming
noc
ners
▁storm
▁laboratory
▁nice
▁erect
▁powd
▁authorized
artin
▁achieved
▁funny
osc
oscow
▁Und
lantic
▁parties
▁vague
▁vivid
▁mile
▁kick
▁example,
▁leader
otten
▁resum
▁valid
▁Indian
▁Count
▁storage
izes
▁rural
▁patrol
▁attribut
▁friendship
▁saying
▁says
▁alex
▁innoc
▁chall
▁channel
▁Merc
umin
▁opening
▁rational
▁forms
▁Most
▁prominent
outhe
▁readily
▁desper
▁sciences
▁darkness
▁affirm
▁affection
▁deny
▁papers
▁saving
oyal
▁loyal
arian
▁tremendous
▁seld
▁fulf
▁fulfill
▁guidance
▁worked
▁selected
▁pulled
▁expressed
▁suspic
▁suspend
▁ocean
▁calm
▁interval
ayne
gry
▁rhy
▁rhyth
▁rhythm
iance
ius
ios
issippi
▁App
▁smith
aker
▁closer
▁smaller
▁recreation
▁legislation
▁transportation
▁cooperation
▁resemb
lem
more
▁shore
gotten
ta
rietta
▁joint
ouncil
▁Council
▁coal
achel
itut
itain
▁drain
pecific
▁September
ancisco
▁hero
ato
▁rat
▁ratio
▁native
▁Co
▁City
▁personally
▁Hanover
▁hanover
ipping
▁Aj.
▁sequ
▁sequence
isdom
▁wisdom
abel
▁wel
▁welcome
▁snake
▁ambig
▁fairly
▁golf
▁matur
▁dispute
▁condem
▁pride
▁200
▁2:
▁legislature
▁Henry
▁henry
▁arc
▁U.N
▁movements
▁stiff
▁Both
▁household
▁Once
▁vehicle
▁coinc
▁probability
▁remembered
▁alternative
▁conservative
▁lifted
▁unconscious
▁mad
▁properly
▁largely
▁alive
▁alter
▁handsome
oss
▁insect
▁career
▁muscl
▁arrangement
▁arrangements
▁lect
▁compound
▁them.
▁hunting
▁swimm
▁june
▁courage
▁occupied
▁supplied
▁cylind
▁reput
play
▁mentioned
▁vel
▁veloc
▁somebody
▁dangerous
▁classes
▁busy
elph
elphia
adelphia
gia
orgia
▁Ang
▁Angel
▁mel
▁melt
▁radical
▁Bar
▁submar
▁friendly
ieved
▁seldom
lo
▁completed
▁surpl
▁craft
▁crash
▁cred
▁credit
▁clar
ivision
▁Among
▁frag
▁mental
▁poems
▁includes
▁interested
▁discovered
aver
▁attractive
rm
▁Our
▁vers
▁version
▁consists
▁ice
▁notice
place
▁swept
▁Only
▁nur
▁led
▁Adam
apped
▁proved
▁deleg
ibilities
▁responsibilities
▁salt
inct
▁instinct
▁inches
▁therm
▁conclusions
▁morgan
▁phosph
▁compared
red
▁die
▁Em
▁El
urried
▁worried
rupted
thodox
night
mann
▁Never
▁portray
▁instruct
▁Gre
tronom
utonom
down
▁alleg
▁complic
▁complain
▁passion
▁passeng
▁Britain
▁constitute
▁said,
▁yank
ureau
▁repor
▁gift
▁June
▁1962
▁propriet
aked
artmouth
▁performances
▁instances
▁advantages
▁king
▁perman
erk
▁clerk
▁lawy
kind
▁mankind
▁personality
ulf
bon
emble
-S
igaret
▁volunt
▁ambition
▁won
▁unw
▁musicians
▁Rev
▁worst
▁knees
▁improvement
cend
▁chart
▁maturity
ality
expect
▁emission
inese
▁chlor
▁necessity
▁remot
▁France
▁Friday
▁holiday
▁friday
▁visible
avery
▁190
▁peas
▁decor
▁expenses
▁Sch
▁absorb
▁Company
▁lose
▁fourteen
▁remarkable
▁lat
▁diffusion
▁materials
▁luck
▁subtle
istotle
rozen
oman
▁explor
▁graph
▁anybody
attered
▁sew
▁x
▁ranch
▁barn
▁merit
▁December
▁lord
▁precisely
ged
▁departments
▁Because
▁extremely
▁Berlin
▁surplus
▁territory
▁theory
▁studio
▁structural
▁homes
▁painted
▁identify
▁failed
▁berlin
▁comparable
irable
▁desirable
quir
▁comparative
-degrees
ores
▁memor
▁deliberately
▁abrupt
▁manufacturers
▁composition
a,
▁owners
ohnst
ohnstamm
▁steep
▁dispos
▁Service
▁sid
▁sidew
▁sidewalk
erry
erhap
▁Perhap
▁luc
▁indirect
ustain
▁restrain
▁output
▁pul
▁ul
▁ultr
ulate
▁compul
▁outr
-C
▁Though
▁Those
▁appears
istrict
▁northern
▁lyric
▁carrying
▁barb
▁advent
▁downtown
▁remains
▁permission
iles
egregation
▁desegregation
▁camer
▁refriger
▁release
▁dyn
▁oxy
▁oxygen
▁scen
▁profession
▁conjug
ites
▁stayed
rook
▁agent
▁agents
▁Pe
▁Peace
▁genius
▁purs
▁pursu
▁Sc
adequ
▁calculated
▁eag
▁specifically
▁colony
▁december
▁continuous
▁seat
▁cours
▁courses
500
▁300
▁removal
▁pink
▁pip
▁Scot
igger
▁winning
together
▁magazine
▁routine
▁chlorine
▁squee
▁knee
▁cruel
▁drill
▁descend
▁wire
▁unexpect
abil
▁britain
▁carbon
▁years.
▁occurred
▁october
nomial
▁polynomial
▁dise
▁disease
▁colors
▁errors
▁error
▁link
▁dism
stead
ly,
▁kiss
▁cigaret
▁cas
▁Further
▁Hudson
▁reserve
▁residence
▁satisfied
▁replied
▁satisfaction
▁Do
cell
▁mood
▁scientists
▁flood
▁russian
▁russia
▁anywhere
ude
▁prosper
degrees
▁amend
▁Chinese
naire
▁questionnaire
now
cknow
▁irreg
▁irregular
▁ones
▁patch
▁barrel
▁doctors
▁embarr
▁embarrass
▁magazines
▁observed
▁successfully
▁absurd
west
ced
▁forced
▁Mc
cular
▁institute
▁School
▁buff
▁jewish
▁symph
▁textile
ifications
▁observations
▁casual
▁extraordinary
▁inevitable
▁unable
▁sixteen
▁mineral
40
▁apart
▁professor
born
▁despair
uces
udge
▁nose
▁introduced
▁jacket
sland
▁Island
▁atomic
fare
▁warfare
▁termin
iny
▁tiny
▁gyro
▁condemn
▁operate
▁planet
▁permanent
▁bord
ret
▁industries
▁Cent
▁surfaces
▁pun
▁widely
▁dismiss
▁oh
▁rac
▁happens
▁driven
▁Roman
▁regardless
"!
▁september
▁Conf
foot
▁rode
▁blond
▁silver
▁municipal
▁records
▁rust
▁preferr
▁interesting
▁rising
▁drawing
anish
▁finish
▁distinguish
▁furnish
▁Jewish
▁sweep
bit
▁arbit
▁Sometim
▁intersection
aust
haust
▁exhaust
▁accus
▁export
▁reporters
▁heat
▁extr
▁books
ening
▁wooden
enrietta
▁multiple
▁fle
▁proclaim
▁eternal
▁salary
▁salv
▁decide
▁veget
▁symptom
▁enterprise
▁terrible
▁driving
▁Par
▁variable
▁variables
athed
▁illustrated
▁sixty
▁manif
▁manifest
ifted
ife
▁hell
▁Therefore
▁investigation
▁scratch
▁page
▁enthusiastic
▁eld
▁convey
▁november
▁dirt
▁refused
▁assert
▁alert
▁magnetic
ifice
▁sacrifice
▁vice
▁dict
▁retired
▁retire
▁tired
▁queen
▁seventeen
▁Ass
▁Association
▁discussed
wave
▁skywave
▁Let
▁La
▁preced
lfred
▁collabor
▁jur
▁juris
▁jurisd
▁jurisdiction
▁destiny
▁angry
▁legend
▁reprod
▁ladies
▁shirt
▁leading
▁boot
▁sket
▁mistake
▁fluid
▁incomp
▁hurt
▁paint
▁height
▁insight
▁exagger
▁earning
▁estimate
▁accurate
iumph
▁triumph
▁escap
▁exclud
▁respectively
ministr
▁Administr
▁relev
▁reasonably
▁July
▁july
otton
▁cotton
orship
▁neat
▁mechanical
▁sam
▁saturday
▁Saturday
▁works
▁passing
▁circuit
▁fish
izable
acific
▁beach
▁units
▁sister
▁coat
▁prose
ansas
▁constitut
▁years,
▁entry
erted
umble
▁monument
raid
▁afraid
▁maid
▁bloom
▁aspects
▁identical
ibly
▁trib
▁label
▁bargain
aware
▁bread
▁grade
▁finding
▁fighting
▁accurately
▁commit
▁ecum
▁quarrel
▁whipp
▁articles
istry
▁outstand
▁sugar
▁route
▁thank
▁quantity
ae
▁note
▁contribute
▁defe
▁County
▁cells
cast
▁broadcast
▁fly
▁fing
▁fingers
▁finger
▁fog
▁slavery
▁consideration
▁crime
▁cru
▁crucial
▁craw
▁geograph
agraph
▁paragraph
▁paral
▁paralle
▁parallel
▁dign
▁dignity
▁der
▁derived
▁cheap
▁doc
▁document
▁Texas
▁substitut
▁organic
▁ownership
▁discussions
▁Great
▁Greek
▁greek
▁diplomatic
▁supreme
▁Rome
▁181
istol
▁Mary
▁mary
▁offices
▁nons
alfre
▁sewage
▁branch
▁regiment
▁regions
▁regret
▁camera
▁patri
▁Ne
▁Board
▁potato
▁unp
encil
▁pencil
▁bay
▁essay
▁bunk
axon
▁nonspecific
▁Fort
▁District
▁pian
▁please
iably
▁proport
▁sad
▁realistic
▁artistic
▁pup
▁pupil
enced
aneous
▁Lord
▁wilson
▁proof
▁examination
▁examined
▁examine
▁attitudes
▁charged
▁charges
▁mort
▁texas
▁stockhold
▁stir
▁secure
▁conceived
▁helpl
▁helpless
▁flux
▁comfortable
apping
happ
▁unhapp
▁remote
▁eager
ighter
▁ster
▁sustain
▁magic
▁wise
ogue
▁virtue
▁argue
▁Through
▁pour
ourney
▁journey
▁fired
▁spectacular
▁patent
▁component
imination
▁onto
▁experienced
▁delic
▁shooting
▁defeat
▁divided
▁Eisenhower
▁sports
▁explos
▁prohib
mon
stair
▁invar
▁invariably
▁Laos
▁Cub
▁Comp
▁characters
▁confident
▁rail
▁rig
▁rigid
roduct
▁distant
▁massachusett
asp
▁grasp
▁China
▁china
▁auto
▁ren
▁renew
▁reh
▁rehabil
▁rehabilitation
▁Le
▁League
▁continuing
▁hopes
ougl
▁tribut
▁dimension
▁dimensions
▁sufficiently
▁chinese
▁coach
▁sadd
▁steam
▁leather
▁liked
▁anxious
▁ecumen
▁ecumenical
tical
▁affairs
▁brook
▁contest
inomial
▁consciousness
▁observe
▁normally
wich
▁partners
nie
▁(1)
▁Nevertheless
▁glance
▁measurement
▁displace
▁adjustment
▁phon
▁furnit
▁furniture
▁pace
bor
▁harbor
▁harv
▁plaster
thur
orton
▁Philadelphia
▁philadelphia
▁28
▁188
▁29
▁mobile
▁perception
els
▁"S
▁creation
▁destruct
ulous
▁temporary
▁Their
▁formal
areness
▁awareness
▁chron
▁patron
▁chose
▁chrom
boy
▁excite
▁Mike
als
alifornia
▁California
▁logical
▁caf
▁tact
-time
▁imitation
▁sweat
▁guilt
▁portra
▁"p
▁"A
▁"f
▁centers
▁bride
▁cav
▁crop
▁dial
▁volumes
employ
▁plent
alian
▁empir
▁prime
▁dynam
assachusett
ics
▁medic
▁subjects
▁April
▁marriages
▁pond
▁follows
andom
▁random
ster
▁myster
▁splend
▁split
▁frustr
▁Soc
▁Society
▁Sen
▁participation
▁frequent
▁seed
▁continually
▁weekend
▁specim
▁publication
▁cabinet
▁enforce
▁retail
▁exclusively
in'
▁troubled
▁troubles
▁Industr
▁India
▁customers
bur
burgh
▁determination
▁fifth
▁losses
▁Manchester
▁Arthur
▁Class
erences
▁conferences
▁ambiguous
▁directed
▁uncle
▁parad
▁arthur
▁advertising
outheast
▁declared
▁newspapers
adequate
▁organized
▁convinced
▁pulmon
▁leap
▁scattered
▁cars
▁Figure
▁latest
▁Prot
▁Protest
▁earnest
▁dependent
▁vent
▁substance
▁St.
▁increasingly
▁rarely
▁August
▁items
▁parts
▁binomial
▁acquired
▁talents
ys
▁metaphys
▁Army
itated
▁irres
▁heaven
olly
▁wholly
▁freight
▁irre
▁sanction
▁starting
▁mo
▁denomin
▁existing
uthentic
▁joined
▁plenty
▁Joseph
▁joseph
▁challeng
▁specified
70
▁Penn
▁blanket
▁altogether
▁furnished
▁Luc
▁revenue
▁revenues
▁categories
▁informed
▁acquire
inda
▁pistol
▁Ear
▁temple
▁yards
▁estimates
▁roar
▁greatly
▁pushed
▁complicated
▁decades
▁steady
▁steadily
ickey
▁congo
▁paradox
▁subsequent
▁sovereignty
▁turning
▁dragg
wick
▁lew
▁Sw
▁tempt
▁chick
▁striking
loride
quest
▁wages
anta
lanta
▁antis
▁temporarily
▁Paris
load
▁bull
▁comput
▁imagin
▁tail
▁Charl
-up
▁changing
▁sentence
▁innocence
▁consequence
▁consequently
▁exceed
▁Wil
▁Wilson
▁watson
▁hence
natur
▁forty
▁forth
▁arbitr
▁frames
▁france
▁contempt
▁contempl
tric
ologist
▁species
▁Under
▁threatening
▁threatened
third
▁Morgan
▁Administration
▁phenomenon
▁thoroughly
▁dirty
▁ultimately
▁mysterious
acious
▁handle
▁Why
angel
▁historian
do
▁outdo
▁argued
ino
inois
▁fallout
▁occurrence
herent
▁ju
▁flexible
▁allot
▁allotment
▁complement
▁entertainment
▁excitement
▁guilty
type
cc
▁obsc
▁frightened
▁bigger
▁lumber
▁exclusive
▁Sam
▁75
▁attain
oven
▁slipped
▁tur
ese
▁Japanese
▁japanese
oe
▁fault
▁corrupt
▁raw
▁rubb
▁diagon
▁McC
kins
▁wal
▁category
▁Protestant
▁client
not
▁brid
▁scarce
▁skirt
▁senate
▁meanwhile
▁row
▁bronchial
▁congr
▁Three
▁convenient
▁apparat
▁apparatus
▁campus
▁mike
▁challen
▁challenge
-class
▁drama
▁printed
ias
▁policem
▁interpreted
▁appreciation
▁advoc
▁combat
▁ble
▁outer
▁asking
ommun
▁slave
▁earliest
under
▁accomm
▁Edward
▁award
▁edward
▁finance
▁antagon
▁holding
▁elaborate
low
pection
▁produces
▁decline
▁Monday
▁monday
▁Me
▁cafe
▁shows
▁uns
▁saddle
▁Shakespeare
▁farther
yearold
▁bother
▁script
▁eisenhower
▁movie
▁tremb
▁fascin
▁balanced
line
▁contained
▁extract
▁laos
▁killed
▁assault
▁senator
▁housing
▁rifles
▁roles
▁bag
▁scot
▁beat
▁bell
▁ways
▁capabilities
▁probabilities
▁inspection
plane
▁counterpart
▁Fin
▁Finally
▁reluct
▁martin
▁Martin
▁releas
▁appreciate
grad
▁duties
▁metropolit
▁aboard
▁frequency
▁requirement
▁perspective
▁belt
▁demonstrated
20
▁Out
▁trembling
sewhere
▁elsewhere
▁suffering
▁politics
▁excit
▁excited
▁him,
▁survive
▁knows
▁micros
▁inspect
▁developing
▁verb
▁literally
▁pursuant
▁cigarette
▁indian
aulk
aulkner
▁Paul
▁paul
▁divor
▁divorce
▁divine
ceived
iece
▁aside
▁discipline
▁encouraged
▁stom
▁stomach
▁ward
▁till
errill
▁guerrill
▁pill
▁assigned
▁divers
▁drivers
▁don
▁nick
▁sections
opp
▁faced
▁regime
er's
▁code
▁drum
▁accum
umn
▁collective
▁reports
sues
▁issues
▁compuls
▁describe
▁Junior
▁1952
▁1950
/2
-to
▁modest
▁february
▁destructive
▁buildings
▁standards
sylvania
▁Pennsylvania
▁pennsylvania
▁vigorous
▁devil
▁lewis
▁prevention
▁revol
▁deter
▁deterg
▁stared
▁Cap
▁scrap
▁eighteenth
▁excuse
antle
▁assistant
▁medicine
▁ethical
▁muse
▁museum
▁rome
▁anger
olecular
ensional
evens
agner
▁38
keep
▁dish
▁bow
▁ow
▁pictures
▁tomorrow
▁hopeless
▁metropolitan
▁pretend
▁judgments
▁piano
▁frozen
▁crouch
▁processes
▁contrad
shop
▁jones
▁charl
▁abstraction
▁absent
▁innocent
▁punish
▁tun
▁glanced
▁transm
▁ax
▁axis
▁restor
▁forget
▁sinc
▁submitted
▁immort
▁immortality
▁immigr
▁milligr
▁compre
▁compreh
▁comprehensive
▁sympathy
mith
▁Smith
ishop
▁automob
▁automobiles
▁missiles
▁patriot
▁constantly
▁mine
▁Germany
▁enforced
▁experimental
▁High
whel
whelm
▁overwhelm
▁firmly
ingly
ing,
estival
▁flower
power
▁widow
▁David
▁david
▁thread
pread
▁roman
▁Wood
▁individuals
▁diss
▁horn
▁hide
▁hamm
▁strictly
▁crown
▁samples
▁qualified
▁mixt
▁mixture
▁appr
▁Cr
▁du
▁excessive
▁distress
case
▁extended
-t
▁Art
▁paus
▁teen
▁georgia
▁outlook
▁desires
▁relieved
▁Francisco
▁exhibition
▁engagement
▁procedures
▁magnificent
▁"M
▁lung
▁speeches
▁carp
pired
▁inspired
▁fiber
▁accommod
▁boil
half
▁complaint
▁assure
▁disaster
▁regulations
▁objects
▁nut
utch
dr
ren
▁Centr
▁charter
▁curios
▁Senate
▁variation
▁legs
▁happiness
▁physiological
▁illumin
▁disch
uccess
▁quarters
▁Dallas
▁Du
▁projects
▁palace
▁sigh
ighth
inson
▁stepped
ruit
▁recruit
▁Furthermore
aution
cence
▁adolescence
▁Civil
oil
▁substitute
stitute
▁morph
▁mistaken
▁greet
▁fur
▁smiled
▁amaz
▁employee
▁troops
▁motors
iors
▁gest
▁gesture
▁surprised
▁discovery
▁faint
▁restraint
▁showing
▁dull
▁statistic
▁admit
ait
illy
▁ceil
▁represented
▁engineering
▁timber
ashed
▁devoted
▁guests
inn
awn
natural
▁publish
▁male
▁monk
▁deserv
▁motiv
-range
esus
▁Jesus
▁jesus
▁dallas
▁lips
▁stup
▁stupid
velt
oosevelt
▁contend
▁1956
▁depression
▁damn
▁damage
arn
▁bridges
▁claims
mer
ccord
▁annivers
icit
▁explicit
▁compens
▁Part
▁iod
▁Robinson
▁offers
▁Thompson
▁seeing
▁clerg
▁clock
▁retreat
▁sept
▁Lew
▁Lewis
itches
▁switches
itarian
▁intervention
▁borrow
▁Alexander
▁alexander
▁wealth
▁monop
▁bench
▁hudson
▁gallery
▁cy
▁cycle
▁harmony
▁symphony
▁favorable
after
irk
▁bask
ki
▁sir
▁orient
▁secular
▁workshop
edd
▁wedd
de
uster
kin
ousin
▁cousin
inister
▁administer
▁conjunction
ugged
▁intended
▁trained
wide
▁grinn
▁referred
ation.
▁hone
▁germany
▁My
▁crimin
ips
ifies
▁spoken
▁signs
book
▁naked
odge
▁forest
esh
▁flesh
▁enact
▁guar
▁guarant
▁Pol
leton
▁gang
▁incorp
▁suggestion
▁circular
agues
▁colleagues
▁imagined
▁Perhaps
▁calls
▁eastern
▁appointment
▁delicate
▁Boston
▁juniors
▁rebell
▁Again
▁lux
▁"H
▁trag
▁tragic
▁comprom
▁pursue
▁Joe
▁January
▁january
▁lawyer
oubted
▁undoubted
▁ton
▁tape
▁Central
▁slid
▁lovely
▁Marsh
▁Bur
▁ideological
▁cos
▁cosm
asm
▁enthusiasm
▁cash
mond
▁fib
▁bureau
▁boston
▁conducted
▁scope
▁operational
ester
▁apportion
▁34
▁mathematic
▁talked
▁hoped
▁arranged
▁enjoyed
▁explained
▁wondered
▁hurry
▁phases
▁climbed
▁invention
▁washing
▁European
▁buzz
▁satisfy
▁interests
▁presented
▁Yank
▁prescrib
▁wearing
▁desert
▁considerations
▁communications
▁gentleman
ographic
▁symbolic
▁burning
▁formed
▁adapt
▁q
▁alarm
▁reliable
▁Brook
▁recip
▁recons
▁individually
▁supervision
▁concentrated
▁500
▁spray
ontin
col
▁treasury
▁restrictions
vail
vailability
orth
worth
wers
war
▁flew
▁outdoor
ctober
▁October
▁unpleas
▁cowboy
▁Section
▁Instead
ilton
▁musician
▁Spe
▁mortal
▁upward
▁tonight
utumn
▁stuff
▁gardens
▁radar
▁laws
▁antib
▁confused
▁hyster
▁oxid
▁subsid
pay
▁taxpay
▁assembly
▁pulmonary
▁veteran
▁Like
▁oct
▁european
▁"C
▁officials
▁Moscow
▁moscow
▁thermal
▁copy
▁invited
▁186
▁images
▁Well
ictor
▁sle
▁slept
▁pursuit
▁relatives
▁envelop
▁suspicion
▁unfortunately
▁astronom
▁scheme
▁transformation
▁loans
▁equation
▁Prokofieff
▁Mississippi
ensity
▁density
swers
▁answers
▁pointed
occ
occup
▁preoccup
▁Sup
▁embr
▁inquir
▁exposure
▁cease
astern
▁stern
▁furthermore
▁refuge
▁weigh
lic
▁2:3
▁sampling
▁ambass
▁ambassad
▁"c
▁"m
▁sensit
▁sensitivity
▁Constitution
▁continuously
▁india
▁indiff
▁X
▁compil
▁briefly
▁sale
▁saline
▁explo
▁nationalism
omfort
anley
▁detergent
▁shoulder
▁powder
▁assurance
▁partnership
▁confess
-inch
▁practic
rica
▁precious
anches
▁branches
▁"B
▁constr
▁keeping
▁obser
▁observer
▁velocity
▁walls
▁haz
▁hazard
▁conception
▁enl
▁movies
▁protestant
▁glob
▁robinson
▁nail
▁vacu
▁vacuum
▁curiosity
▁craz
▁clever
alog
▁Pal
▁Palmer
▁massive
-five
-foot
▁rib
▁ride
▁hurried
▁stands
tail
▁cocktail
▁racial
▁self-
▁assumpt
▁assumptions
▁basket
eth
abeth
izabeth
eep
▁core
▁dialect
▁engineers
▁commod
▁commodities
▁plug
▁plow
▁glow
▁await
▁francisco
▁controvers
atsu
atsuo
issance
▁discr
▁discrimination
▁scheduled
truments
▁instruments
▁Str
▁luxury
bury
jury
▁voluntary
aissance
alfrey
▁moist
▁suitcase
▁suitable
▁mirac
▁mirr
isters
▁uses
▁institut
▁corporations
▁whis
▁whisper
▁lieut
uthors
▁ruth
▁mirror
▁substances
▁citizen
▁lieuten
▁admir
▁harr
ito
ymn
▁Tuesday
▁tuesday
▁whenever
▁dwell
▁cycl
▁fishing
▁ur
▁urge
rence
▁quietly
agnetic
▁forgotten
▁diseases
▁nervous
▁annoy
▁"L
auc
▁democrats
▁artific
▁prokofieff
▁impul
▁varying
▁Reg
▁refrigerator
▁discharge
▁terror
▁Green
▁Nothing
fred
▁alfred
▁Ann
▁democracy
▁archae
ised
▁granted
▁twentie
▁twentieth
▁eccent
▁eccentric
▁tent
▁resent
▁$3
▁1953
osis
▁opposed
▁Educ
▁submarine
▁substr
▁brick
▁oppon
▁discret
▁prol
▁Po
▁spokes
▁wander
ifying
▁loved
▁nomin
▁partner
onn
▁horizon
ored
▁compare
▁rehear
aging
▁tap
▁ple
▁Office
▁allowances
▁repeat
▁Alfred
thlet
icense
▁license
▁od
weight
▁35
▁2,
▁collap
▁wright
▁arrival
▁mississippi
oster
▁O'
▁Fe
▁February
▁inventory
▁philosophical
andler
▁brood
-1/2
ometric
▁intim
timore
ana
aded
▁persuaded
adjust
ado
mark
astroph
▁catastroph
ounced
ternational
▁comments
▁comed
▁sketch
och
▁Congo
▁nodded
▁handling
▁orbit
▁Little
▁Public
cription
ij
▁characteristics
▁emphasize
▁draft
▁dried
▁drift
▁Tre
asy
▁thyrogl
▁Angl
▁epic
icial
▁appreh
▁Atlantic
▁refund
ider
▁Jess
▁sincere
▁correl
oons
▁effectively
▁hungry
▁glimp
gradu
▁transcend
▁classic
conomic
away
awk
▁walking
▁milligram
▁graduate
▁moves
ulpt
▁sculpt
▁Social
▁documents
▁polar
▁verse
▁prel
▁prelimin
▁preliminary
▁analyz
▁analytic
▁Accord
▁mathemat
▁mathematical
▁phenomena
▁cream
▁revision
▁looks
▁farmers
▁spark
▁assembled
allow
▁swallow
▁traveled
▁Gl
set
▁submarines
▁visitors
ady
▁gear
▁basement
▁(the
▁muscles
▁delightful
▁van
othing
▁begins
▁Massachusett
▁barely
▁Ab
▁dogs
▁fields
▁giant
▁denot
▁curtain
▁spell
25
▁(195
level
▁interm
▁reporter
▁contributed
▁squeez
ivery
▁delivery
▁execution
rec
▁shoulders
▁Place
▁ban
antry
▁Republican
▁bat
▁splendid
▁examin
▁tick
▁procure
▁Lincoln
▁lincoln
▁36
▁Rayburn
▁rayburn
▁details
▁detailed
▁poison
▁eleg
cut
▁continues
▁marginal
▁classical
▁melody
▁dimin
▁sophisticated
iations
▁negotiations
▁advances
▁breast
▁displacement
▁disappoint
▁intelligent
▁spont
▁golden
▁mature
▁literal
▁alternatives
▁Labor
▁blame
▁lieutenant
▁trick
▁retirement
▁man's
▁shelters
▁neares
▁reputation
▁paris
▁37
▁deput
▁microsc
▁optical
▁reass
▁encouraging
▁continuity
▁Gu
▁sketches
ibald
iative
itiative
▁bi
itative
▁Law
▁Lawrence
▁correspondence
▁accelerometer
▁ru
ournament
▁africa
▁boost
▁respir
▁respiratory
▁whir
▁collected
▁resign
▁resolved
achloride
▁decomp
▁adopt
▁undert
▁undertaken
▁outstanding
▁tied
▁oclock
▁prize
▁observation
▁oxidation
onym
▁Pres
▁Wright
▁Warr
▁Warren
▁Play
▁Plato
▁diver
▁Prince
▁scientist
▁consumption
▁thereby
ichmann
▁smok
▁chicken
▁employed
▁legislators
▁rabb
▁anyway
tock
▁livestock
▁deck
▁flying
▁elev
▁limitations
sued
▁issued
▁helped
▁suffered
aude
▁1,
▁meat
▁birds
▁Jr
▁Jr.
▁Day
▁contour
▁Scotty
▁scotty
chang
▁sang
▁patience
▁eighth
▁pathology
▁Ge
▁Georgia
▁promote
▁promotion
▁convenience
▁mounted
▁rolled
▁narrative
▁tentative
water
▁"w
thodont
▁debate
▁kingdom
▁jess
itual
▁ritual
▁mutual
▁viewpoint
▁clarity
active
▁pen
oly
ico
▁poetic
▁purely
▁deeply
ounce
▁mob
▁depress
atson
▁Watson
▁Earth
▁partially
▁officially
▁Can
▁helpful
▁glad
▁tribute
▁associations
▁Hard
▁trustees
▁eleph
▁Six
▁holy
ruff
▁hypothalamic
▁worn
roke
▁factory
▁violent
▁settlement
▁morphoph
osevelt
▁roosevelt
▁cultiv
▁conceiv
y,
trachloride
▁tetrachloride
▁wrink
▁corresponding
▁controlled
▁thompson
olated
▁reorganization
▁print
▁wet
▁solved
inite
▁infinite
ubble
▁hatred
▁subordin
iter
itor
▁pit
▁discount
-year-
-year-old
▁supers
uring
▁morality
▁thyroglob
▁amendment
arton
aylor
▁merchants
▁cooperative
▁ghost
▁firms
▁civilian
▁dawn
▁empirical
▁conspir
▁merger
▁outcome
▁overcome
raux
▁abund
esday
nesday
ednesday
essions
▁sessions
▁bless
▁sake
▁reward
▁rein
▁reinfor
path
▁shopp
piece
▁regarded
▁Carl
▁stagger
▁reader
▁technological
▁ratios
▁compell
▁Charlie
▁Neither
▁compromise
▁lake
▁lies
▁enemies
▁candidate
▁beef
▁(wh
▁desperate
▁desperately
ai
awai
stery
▁mystery
▁isolated
-J
▁reactivity
▁O'B
▁arise
isp
espread
▁widespread
▁disclos
ambling
▁indifference
▁Conference
▁portrait
▁supernatural
▁particle
▁climate
▁muscular
▁plays
▁midnight
▁disk
▁gradient
erald
▁qualifications
▁probable
▁consumer
▁peer
▁pepp
▁facts
▁emphasized
▁serves
▁Woodruff
▁towns
agr
▁diagr
alski
▁dealing
▁hypothalamus
▁til
▁mantle
▁Mantle
▁lawrence
▁immense
anche
▁containing
▁seeking
▁acting
▁Mercer
vis
▁swimming
▁1955
▁producing
▁Uncle
mma
ilemma
▁dilemma
▁dig
▁ded
▁deduct
▁dedic
▁deduction
▁ridic
▁ridiculous
▁riding
▁scenes
ependence
▁fever
▁mercer
▁defect
▁infect
▁dear
▁tangent
rap
▁fant
▁fantastic
▁simpler
▁45
▁400
import
▁cooling
▁minimal
▁80
▁flour
▁factories
▁cere
▁upstair
▁planetary
▁wholes
▁ordered
▁classroom
▁pages
▁maintained
▁stall
gre
▁degre
▁enroll
▁assessment
▁prince
odger
▁Jones
▁sacred
▁pron
▁communists
▁flexibility
bridge
▁festival
▁miriam
▁stamp
gregated
▁anticipated
▁disappointed
▁anniversary
▁noise
▁stere
asters
▁batter
▁curves
▁opera
▁operated
▁interaction
▁economical
▁Stud
▁Stanley
▁Tom
▁greg
▁diplomacy
▁1920
▁volt
▁debt
ubber
▁punishment
▁tube
pire
ards
▁arrow
owalski
▁salvation
▁champion
▁concess
emic
eman
▁worries
▁raising
▁gloom
▁implications
▁variations
▁letting
▁evolution
▁Revolution
▁obey
▁"s
▁Italian
-sh
▁Nav
▁"b
▁stores
▁stored
▁saved
cape
▁classification
▁reluctant
▁responses
▁theme
▁gate
▁depos
▁Division
▁mortg
▁Wal
▁parent
▁tapp
cknowledge
▁decay
▁decis
iolet
▁originally
▁chemistry
▁phrases
▁Spanish
▁utterly
▁diet
▁enab
▁recommended
▁marble
▁prolong
▁savage
▁elementary
▁arbitrary
▁mild
▁mc
▁clin
▁clinical
▁Canad
adium
▁surely
▁nest
▁fascinating
▁occasions
▁fluores
ifting
▁aggl
▁ages
▁debut
▁About
▁crystall
▁Peter
▁Leg
▁dancing
▁dancers
▁aj
▁warrant
▁warren
▁specimen
▁deeper
▁Jackson
▁numerical
▁jr
▁jaw
▁partly
▁warmth
▁ol
▁feelings
▁swell
▁songs
▁animals
▁struggling
▁intu
▁intuition
▁proportional
▁exceptional
▁congressional
▁panels
▁jobs
▁indign
▁barriers
overty
▁poverty
▁loyalty
▁financed
▁pump
fall
▁Juniors
▁vess
▁levels
▁Te
voc
▁projection
▁cluster
▁corr
▁Sometimes
▁Res
▁suited
▁suck
▁Pap
▁Papa
about
coming
▁yarn
▁tank
aun
▁Mich
▁mich
▁mud
▁Journal
fulness
▁soften
▁stanley
▁fence
aptist
▁ampl
▁manchester
▁dread
▁agriculture
rical
rican
exican
▁sphere
▁nowhere
▁enclos
clined
clock
'clock
▁o'clock
▁wool
▁Resear
▁nu
▁nutr
▁readers
▁Harr
▁warn
▁flavor
▁guy
lete
▁incomplete
leans
▁Utop
▁spraw
▁surge
▁dissolved
▁constructed
▁supported
▁supper
▁rival
▁smashed
itious
▁ambitious
▁prej
▁prejud
▁hal
iscons
▁1000
mont
▁pont
▁Pont
ontrol
▁lever
▁peak
agree
▁disagree
reeze
▁boats
▁Supp
yr
▁recommendations
▁productivity
▁unfortunate
▁mechanics
▁colonial
▁scrut
▁"N
▁touched
▁shoes
▁charlie
▁fibers
▁Blue
ermans
▁converted
▁convert
▁foil
▁realization
▁disappro
▁micro
▁microm
rot
▁humble
▁squad
▁Moreover,
▁movable
▁serving
ining
▁dining
inter
torney
▁Attorney
▁shakespeare
▁revealed
▁evaluation
12
▁Air
iat
▁whereas
▁trace
▁endless
▁shell
▁sheet
cknowled
▁hes
▁hesitated
▁ham
▁managed
▁managers
▁snatch
▁dispatch
▁sink
▁sor
▁sorry
▁Institute
▁monopoly
▁revolutionary
▁improving
▁folkl
▁folklore
lers
▁builders
ging
▁fallen
igible
▁tangible
▁leaned
▁Judge
▁bund
▁exposed
▁long-range
▁purchases
▁discre
▁Actually
▁gradual
▁Seven
▁Youn
▁indisp
▁generous
olina
ologists
rost
ciously
held
▁iv
▁om
rapist
▁unexpected
▁shared
▁confession
▁snakes
▁transmission
▁pronounced
▁Oh
▁Ohio
▁Over
▁shade
▁consistent
▁climax
▁Senator
▁harsh
▁Greg
▁speaker
▁speaking
▁marketing
▁Justice
▁vit
▁ven
▁via
athode
▁stockholders
▁Suprem
▁holes
▁whip
▁arrest
▁secondary
▁insistence
-day
▁denial
ouglas
▁lover
▁Hel
▁Pat
▁pet
front
▁manufacture
▁Chief
▁fountain
▁praise
▁analog
▁demands
▁clothing
▁drinking
▁bind
▁consistency
esthetic
ises
▁Assemb
▁marvel
▁committees
▁adjustments
▁stereot
▁boating
astro
▁tests
▁propaganda
▁Govern
▁republican
▁waste
▁burned
▁arres
▁arrested
▁sitter
▁cott
▁"d
▁socially
fur
▁frankfur
▁Bank
▁governments
▁volunteers
▁ure
▁ureth
▁urethane
▁coverage
▁sprink
▁staining
▁illness
▁illinois
llinois
▁infantry
▁wants
▁elections
▁sharply
▁grim
▁grabb
▁ignore
asion
▁helium
▁pottery
▁generations
▁woodruff
iring
▁tractor
▁justify
▁remarks
▁Sec
▁Second
efficient
▁psychiat
▁joe
ghman
▁discip
▁news
▁roads
▁towards
▁mutter
▁Cons
▁Consider
▁undergradu
▁procurement
ughes
▁dancer
▁dictators
▁Hill
▁Have
▁brave
▁"G
▁arous
onymous
▁seized
▁Research
▁aim
lim
imes
▁loom
▁nearest
▁frontier
▁august
▁april
▁Any
▁"D
uman
▁imper
▁imperson
▁resource
▁registration
▁traders
▁trap
▁formulas
▁prayer
▁thyroglobul
▁Anne
▁robb
▁cried
▁financing
ings
▁measuring
▁remaining
▁determining
▁minimize
▁carries
▁survived
inning
unning
▁cabin
▁ohio
▁styles
▁hypocr
▁reaching
▁moderate
▁incorpor
▁provisions
▁negroes
car
▁shear
▁1946
▁vic
▁vicious
▁indef
▁plants
▁map
▁lap
▁pig
ecast
▁self-c
oir
▁Cur
cer
▁lying
▁mixed
▁ivory
trous
▁bulk
▁demonstrate
▁optimal
olester
olesterol
▁cholesterol
▁90
▁fragment
▁mont
TO
ATO
▁substrate
ateur
▁amateur
▁interrupted
▁angular
▁brass
▁arrive
▁decisive
▁bone
▁torn
ixon
▁deserted
romwell
▁precaution
▁productive
▁Corps
▁nurs
sis
▁hypothesis
thesis
▁seventeenth
▁wre
▁vector
▁defensive
▁inner
▁Atlanta
▁impat
▁impatient
▁glued
▁announcement
▁Hospital
▁invariant
izzie
▁autonom
▁indefinite
▁resc
▁160
▁colonel
obbie
apol
apolis
▁time.
▁time,
▁eating
▁jackson
▁resort
▁airport
▁rights
▁compress
ystop
▁(which
▁actions
elangel
▁evangel
elangelo
▁motel
▁motives
▁investigations
▁fleet
▁motive
onies
▁streak
▁fortunate
▁fortune
▁latin
▁composed
▁succeeded
▁taxpayers
ymnastic
chieving
▁ell
▁relevant
fire
▁tire
▁pleased
▁messages
▁bathroom
▁impressions
▁cottage
-P
▁"P
▁synthesis
▁absorption
▁Bel
orse
oral
▁naval
▁electricity
intend
▁superintend
ending
▁badly
▁painful
▁doubtful
▁patterns
▁conspiracy
face
▁Def
▁Defense
▁discontin
▁accordance
▁une
▁uneasy
▁scrutiny
iana
▁louisiana
▁anti-S
▁empire
▁decisions
▁windows
▁carpet
▁dil
▁stumbled
throp
owned
▁promised
▁seal
-of
-term
▁Rachel
▁rachel
▁quack
▁friction
▁thunder
▁lecture
▁dar
▁refresh
▁thresh
▁"O
▁effl
▁efflu
▁effluent
agu
▁185
▁midst
iazz
▁eliminate
-like
▁Mont
neg
▁passages
▁Still
kill
▁sets
▁brothers
seud
▁pseud
▁aud
▁audiences
verse
-A
▁overall
▁(S
▁eliminated
▁applause
▁perfectly
imil
▁define
▁ille
▁telephon
annon
anny
▁armed
group
▁privilege
▁superb
▁influenced
▁influential
▁Er
▁surprising
▁meadow
▁congregations
▁taxes
▁thousands
lined
▁180
▁183
▁vanished
▁conversion
▁Without
va
ugene
▁inhib
▁Helva
▁parlor
▁parade
▁Gar
▁wart
▁smart
ieve
▁cellar
▁encouragement
10
60
,000,000
▁spending
ept
▁skept
▁mortgage
▁obscure
iph
▁proph
▁intensive
▁implied
▁regarding
▁1951
▁replacement
▁marks
eele
vely
velyan
▁Trevelyan
▁Treas
▁Treasury
▁assessors
▁Your
gest
▁biggest
▁Bible
▁opium
▁arter
▁filter
▁participate
imensional
five
▁navy
▁predisp
iament
liament
▁parliament
eal
▁zeal
free
▁Time
▁emper
▁Thus,
▁afterward
▁bang
▁submit
ita
itter
▁tea
▁sacrific
▁interrel
ume
▁editors
▁underground
▁captured
▁capture
▁stroke
▁Elect
▁caution
▁dealers
▁thirteen
▁Carleton
▁spectra
▁blonde
develop
▁Develop
▁border
▁Sherman
▁wreck
▁Roosevelt
range
▁longrange
▁Fig
▁insure
▁recovery
▁diagram
nut
▁entries
▁jail
▁transferred
exico
▁obligations
mas
▁discern
▁forever
▁distances
oh
uddh
itchell
▁accustom
▁Linda
▁linda
▁spontaneous
ufficient
▁sober
▁Chap
▁ros
▁possession
▁blast
▁domination
▁reflected
▁omitted
rok
▁buried
▁historic
▁historians
▁whites
▁Cool
▁Castro
▁northwest
▁virtues
▁spanish
▁refer
▁unb
▁delivered
▁considering
ulative
▁Inde
▁Indeed,
▁devotion
▁gently
▁Maybe
▁servant
▁servants
▁younger
▁mete
▁meteor
▁silently
▁presentation
▁connected
▁crossed
▁Found
acing
▁mac
▁mur
urs
ursday
▁birthday
urface
▁seasons
▁disapproval
ieval
▁medieval
▁grants
▁southeast
▁stimulation
▁administrator
▁detach
▁puzzled
▁clutch
▁rescue
▁ing
▁ingred
▁ingredient
▁depends
amin
▁adolescent
▁perp
▁perpet
kansas
▁franc
umbling
ubborn
▁gentlemen
▁Steele
▁Ste
▁surviving
▁joke
clam
▁proclam
▁proto
▁Coolidge
▁essence
▁roleplay
oday
▁Today
aymond
▁juven
▁singing
▁Prof
▁Nations
▁applications
aven
aved
avis
▁rice
▁proposition
▁width
▁fact,
▁disord
▁startling
▁haun
▁consol
▁consolid
olve
▁Curt
▁colt
▁hawk
▁hate
▁improvements
▁frightening
▁Jefferson
▁deprec
▁depreciation
▁thigh
▁Direct
aine
▁suspended
▁hired
quired
▁admired
▁facing
elix
justice
▁uncertainty
▁strongly
▁reducing
▁bol
olores
▁solve
▁foolish
▁artificial
▁repetition
▁reply
▁pause
▁ambigu
iful
▁unemploy
▁devised
▁slender
▁acid
ifier
▁acquis
▁acquisition
▁measures
▁predisposition
imate
itimate
▁legitimate
▁bowl
▁ships
▁lands
▁landscape
▁bundle
▁reservoir
▁Victor
▁crystal
▁gal
▁applies
▁companion
▁associate
▁barbec
▁fert
▁healthy
▁palmer
ered
erem
▁cerem
▁ceremony
▁ceremonies
▁insisted
▁shield
▁381
-four
▁inadequate
▁province
▁(B
▁situated
▁dominated
▁stable
▁imaginary
▁imaginative
▁traveling
ework
▁casework
▁comedy
▁sanct
▁percept
▁signed
▁vegetables
▁guit
▁guitar
▁hesit
▁San
▁confined
▁tactics
▁demonstration
▁*z
▁monitor
▁ion
▁uncomfort
▁jumped
▁ribbon
▁assignments
▁dictatorship
▁meals
▁kitt
▁decomposition
▁shapes
▁honey
▁jerk
▁realism
▁perfection
itary
▁publishing
▁stuck
▁gained
▁sixth
▁chuck
▁exciting
atis
atisf
▁dissatisf
▁stronger
eration
▁exploration
▁prisoners
▁consistently
mother
▁grandmother
lemn
▁solemn
▁rack
▁defined
alled
▁socalled
-called
▁receiving
▁sleeping
going
▁explod
▁Good
▁distinctive
▁accompany
▁nineteen
▁dates
▁subsection
inqu
▁delinqu
▁relinqu
quare
▁Af,
izations
▁juvenile
▁initiative
▁arts
▁wives
▁tournament
kirk
ether
▁Whether
▁aristo
▁Blanche
▁streets
▁sounds
▁listening
▁seeds
roof
▁curric
▁curricul
▁sharpe
▁Clay
▁Clark
▁structured
ikk
dikk
dikkat
▁subd
▁discharg
▁enjoyment
▁Field
▁lift
▁embass
▁embod
▁fantasy
▁constitutional
▁infectious
▁trigger
▁pianist
▁references
▁acute
▁handled
▁param
▁paramagnetic
▁seam
▁sees
ream
▁Hardy
▁meaningful
▁peaceful
ocation
▁recommendation
jold
kjold
▁fold
▁bold
▁threshold
▁collar
▁bott
▁commonplace
necess
▁vertical
▁compass
▁chill
▁Bill
▁hills
▁colorful
▁trot
itol
ousse
ousseau
▁unpleasant
itism
emitism
▁anti-Semitism
▁enable
▁laughed
▁International
▁poured
nik
▁Business
▁bible
▁calling
▁contains
▁matters
▁detectives
▁impulse
iments
▁thumb
▁columb
▁non-
airie
▁prairie
▁reproduc
▁eligible
▁wines
▁unm
resent
▁Johnson
▁antisemitism
▁grav
chief
▁destroyed
ewise
▁likewise
▁adequately
ili
▁Port
▁escort
▁Sir
▁Spr
▁Oper
▁acceptable
▁invasion
▁cod
onic
▁filling
▁subdivision
▁misund
▁formation
draw
▁sixties
▁ended
acond
▁locations
▁straw
ainted
▁acquainted
▁judicial
rog
gu
▁1949
▁basically
▁alb
otic
iced
▁noticed
▁cleaning
▁iodine
▁1927
▁finds
▁stubborn
ighters
▁alumin
▁aluminum
thletic
▁32
▁nurse
▁ordinarily
▁arose
▁1948
▁microorgan
▁settlers
acco
bacco
coat
▁alco
▁alcoh
▁alcohol
▁*zg
ami
unami
▁ceiling
▁protein
iamond
▁suggestions
▁champions
▁chore
liness
▁reck
▁lesson
▁strikes
▁remarkably
▁doors
▁too,
▁42
-century
▁recorded
▁answered
▁asserted
alysis
mes
▁holmes
▁murm
▁amus
usk
▁premier
ouches
▁painter
▁hunter
▁chin
iami
iriam
▁softly
▁unhappy
▁dances
▁chances
▁plung
▁defens
▁segregated
▁wax
▁wednesday
▁Wednesday
uj
ujill
▁relieve
▁spectacle
▁Wagner
▁happily
▁crazy
▁illeg
▁seg
▁Belg
▁Captain
▁absolutely
▁trim
▁passengers
▁slope
▁Franklin
▁spoil
▁circles
▁Norther
▁pounds
▁reverse
alse
▁false
sey
▁oppose
▁dimensional
▁awake
▁invit
▁whit
▁shopping
▁People
▁determines
▁writes
▁retr
▁suite
▁1900
▁corporate
▁wagner
▁bonds
▁grounds
ows
▁strang
▁stripped
▁crawled
▁backward
isconsin
ienn
ienna
▁Fre
atre
▁wake
itors
itable
▁constit
▁constitu
▁deviation
▁figured
▁prosecut
▁hearst
stream
▁Communists
▁optimistic
▁mutually
▁Represent
▁Stevens
▁dedication
▁dedicated
▁breakdown
▁lawyers
▁jung
▁inquiries
▁irrelev
▁headed
▁approached
▁formerly
▁mostly
▁cert
▁decent
▁clouds
▁curriculum
attan
hattan
▁batt
▁limits
▁composer
▁fluorescence
▁segregation
inal
▁vein
▁rejected
▁boast
▁dynamic
▁couns
▁counsel
▁counted
▁Thursday
▁thursday
▁scarcely
▁Aristotle
▁depending
▁multiplic
uplic
▁rup
▁rupees
▁microscop
▁victor
▁conductor
▁expanding
▁provin
▁Rec
▁depr
▁depict
▁engage
▁cure
aham
▁mah
▁concerns
iffith
▁Contin
▁sheets
ulose
▁migr
▁asleep
▁dystop
▁condens
▁Stein
oop
▁patients
▁ranging
▁"Wh
C.
.C.
▁(C
▁leaf
▁exped
▁expedition
▁alike
jo
▁Franc
80
ctors
▁Greenwich
▁walnut
▁rendered
▁Avenue
▁spare
▁undoubtedly
▁wink
▁betray
▁Sal
▁vocal
▁TV
▁impart
▁choreograph
▁fuel
▁surviv
▁memorial
ymph
▁1945
zym
▁enzym
▁honeym
ymen
▁honeymoon
▁declined
umm
▁thyroglobulin
▁salesmen
▁inserted
▁exerted
wr
▁drap
post
▁russians
▁caval
▁cavalry
▁unnecess
▁U.N.
▁statut
▁tor
▁promptly
▁openly
▁similarly
▁Que
▁sne
▁misunders
▁rubber
▁stirred
▁proportions
▁religions
▁foods
▁ens
▁flag
▁precinct
▁panic
▁angeles
▁ech
▁echo
▁stained
▁straightened
rael
▁clergy
▁attraction
▁christmas
▁Christmas
akers
▁cens
▁temper
▁unpre
aska
▁resid
▁vul
▁vulner
▁homog
▁homogene
ogan
▁voltage
▁Democrats
▁bent
▁jungle
ibaldi
ithe
▁Poland
▁crush
▁flush
▁crude
▁knight
▁presidential
orial
▁territorial
▁impressed
▁gathered
▁extending
▁laughter
▁installed
▁mistakes
▁disappointment
▁arriving
▁diagonal
▁diagonalizable
▁Long
▁concluded
▁boards
▁angl
▁engines
▁zer
▁zero
▁slamm
▁reson
▁ug
ommunist
rogen
▁stereoty
▁hidden
▁disl
▁dislik
▁carl
▁restriction
▁os
▁characterized
▁Governor
▁harvest
▁Legis
▁Legisl
▁Legislature
▁geographical
vin
▁Faulkner
▁urgent
▁urged
▁testament
▁stirr
▁damp
atang
▁grat
atom
omination
▁som
▁Com
▁willing
▁shining
▁again,
▁again.
er.
▁builder
▁contents
-in
▁accent
cap
oli
▁tool
▁abol
▁streetcar
▁hundreds
yll
▁sull
▁bored
▁unions
▁convictions
▁exceptions
▁creature
▁venture
▁Samuel
▁samuel
▁implement
▁impr
▁minds
▁"a
▁influences
▁kohnstamm
▁Kohnstamm
ecut
▁persuade
build
▁symm
▁self-d
▁amounts
▁discouraged
▁Hot
▁Hotel
▁Henrietta
▁henrietta
▁embrace
▁apprent
▁apprentice
▁apprais
▁circumstance
emperature
▁exempt
▁startled
▁envelope
▁textiles
uther
oos
▁choos
BA
▁heavier
▁Cousin
▁Sever
▁Several
▁mans
▁ends
▁minority
▁diagnosis
▁yankees
▁fist
▁physically
▁receives
▁adap
▁atoms
▁Walter
▁Elizabeth
▁lamp
▁protected
▁"h
▁performed
▁encountered
▁resentment
▁fears
▁surprisingly
reece
▁cree
▁creep
▁bottles
▁discrimin
▁aggressive
▁authentic
▁lunche
▁luncheon
ildren
▁helping
lene
▁enforcement
anston
▁disgu
▁disarm
▁commonly
life
▁wildlife
▁Life
▁world.
▁renaissance
▁demographic
amey
▁franklin
anning
▁cafeter
▁walter
▁horizont
ontroll
▁era
▁curt
▁squeeze
urk
▁1.
oo
oan
▁shame
▁saint
▁auditor
▁spectr
uble
▁noble
▁anacond
▁hay
▁lb
▁lone
▁statue
three
▁Gross
▁ballistic
▁Pike
▁pike
▁pear
▁bubb
▁corrid
▁atlantic
unition
munition
▁ammunition
▁winston
▁strategy
▁stadium
▁stevens
▁astronomy
▁deserve
▁sponsored
ateful
▁grateful
▁controversy
▁foundation
▁sole
▁preceding
▁resulting
▁compete
▁competent
▁achievements
▁provincial
▁contradiction
▁contradict
▁Mark
▁plates
▁life.
state
▁chronic
▁behalf
▁summary
▁impatience
▁soci
▁Del
four
▁mask
▁masters
▁thru
▁lobby
▁haul
▁vert
▁vertex
▁Young
oultry
▁dy
▁dying
▁matching
▁knowing
▁anticipation
▁Square
▁drank
▁Mot
▁Motors
▁Mama
▁mama
▁indians
▁positions
▁poets
▁Who
▁blanche
▁bringing
▁glimpse
nessee
con
▁mainly
▁wildly
▁roughly
▁concerto
▁degrees
arewell
▁prospective
▁seemingly
icism
▁strategic
▁molecular
▁lemon
▁optimism
▁diagnost
▁washed
▁sanctuary
▁receiver
▁slide
▁Chandler
▁gambling
▁induc
▁helva
nic
▁ethnic
▁Harv
▁Harvard
▁annually
▁unre
uk
uter
▁computer
▁compr
▁compat
▁compatible
▁morphophon
▁hatch
▁runs
▁feels
▁massachusetts
▁confronted
▁fram
▁concurr
▁succession
ouri
▁Missouri
▁Four
▁notion
▁explosion
▁stereotype
▁Grand
▁Delaware
▁Carolina
▁Mill
with
alaur
alaurie
▁criminal
astically
▁mountains
▁functions
▁garage
proof
▁committed
▁rector
▁veterans
▁insol
▁insoluble
▁memories
▁adverse
▁femal
▁disposal
▁infr
roadway
▁crossroad
▁humorous
▁jefferson
ondition
▁Palfrey
▁prest
▁prestig
▁prestige
▁shipping
▁Miriam
▁holster
▁infection
▁terribly
▁necessitated
▁synthetic
▁A.
▁congregational
▁Inter
▁peter
▁shiver
▁thrill
▁manifold
▁intimate
▁Hol
▁Holmes
▁Hall
▁implies
▁criter
▁loop
▁bishop
▁fitted
▁$5
▁recipient
▁prais
▁transom
abama
ading
▁singular
▁experts
▁fee
jured
▁papa
▁locking
▁installations
▁foster
▁insult
▁insert
▁cafeteria
▁resolve
▁tickets
▁titles
▁telling
▁teenag
▁consent
▁indispens
▁subsystem
▁System
▁harvard
▁functional
▁skilled
▁cited
▁cyn
▁caut
tons
▁tons
▁Industrial
▁evidently
▁arguments
▁(F
▁"F
▁Ruth
etical
oretical
▁metaphysical
aunt
limited
▁Step
▁relating
▁scholastic
▁package
▁filed
▁solitary
▁hostile
▁Next
▁educated
aturated
▁investigated
▁investigators
remlin
▁lonely
▁vigorously
▁analyst
writ
▁brightness
▁clamp
▁Independence
▁existed
▁exists
▁existential
▁brings
▁gets
▁(A)
-wide
cellulose
▁petitioner
▁sunlight
▁deficit
▁wherever
aeus
▁separately
▁paintings
ways
▁payroll
▁Work
▁interrupt
aney
▁Much
▁elizabeth
▁anatom
▁wip
▁cuba
▁thanks
▁holds
▁Als
▁Also
▁vo
▁voters
▁pilgr
▁disciplined
▁invitation
adden
▁tappet
▁jet
▁closet
▁biography
▁Scott
▁appearances
conscious
▁competence
▁italian
▁strok
▁antibody
▁Africa
▁discrep
▁jews
▁skills
▁daytime
▁candle
▁Occ
▁greenwich
▁sandwich
na
a.
lyn
▁Brooklyn
▁brooklyn
▁seventh
▁expenditure
ureauc
▁departure
▁adventure
▁$4
▁184
▁Certain
certain
rim
▁Add
▁them,
ation,
western
owulf
▁cruelty
▁solely
▁rent
inent
tinent
▁pertinent
abri
▁ruled
▁punct
▁persistent
▁carpent
▁capita
▁null
▁gathering
▁unlikely
▁covering
ete
▁micromete
▁85
▁800
▁600
▁serum
▁thre
▁dean
auce
▁sauce
▁benefits
▁Super
▁customer
erto
uerto
▁barbecue
▁expectations
▁O'Ban
▁O'Banion
▁ambassador
▁indication
▁politician
▁Garibaldi
white
▁novelist
▁wrapped
▁Columb
▁instructions
▁long-term
▁verd
▁verdict
▁indict
▁indul
▁undertake
▁Lake
▁seated
▁blunt
▁physician
▁players
▁fees
▁feas
▁feasible
▁boundaries
▁carleton
▁creating
ing.
▁exert
agged
-and
-and-
▁poland
▁operand
▁operates
▁co-
▁co-op
shire
bl
▁preferred
▁attended
lines
▁implicit
▁qualify
▁clarify
▁tracing
▁selling
▁priority
▁Michelangelo
▁michelangelo
▁biological
▁lots
antly
▁merchant
▁awful
▁provinces
▁demanded
omery
gomery
▁views
iciency
▁receipt
▁spokesmen
gers
tenna
▁agglut
▁endurance
▁gymnastic
▁representing
▁sermon
▁reactions
▁Rock
▁believing
▁belg
▁released
▁overnight
itrogen
▁chew
▁flames
▁orthodont
▁ench
▁enchant
▁Dartmouth
▁dartmouth
▁dot
▁periods
orter
▁centrif
▁ideology
▁reapp
▁revel
tection
▁detection
otte
▁cha
▁chaos
▁glory
▁advisory
▁dug
▁dash
▁disappeared
▁useless
▁scenery
▁opponents
▁opponent
▁65
▁knocked
▁boss
▁bast
▁ben
▁bush
▁bark
ierce
▁exploit
▁Clayton
▁crises
-to-
▁politicians
iac
acent
▁adjacent
acqu
iating
ulating
resco
▁sharing
▁vag
▁Hamm
ean
plan
expl
▁semi
▁neatly
ani
aniel
▁revival
▁revised
▁Morse
▁grades
ourke
▁Louisiana
▁fort
▁bombers
▁bombs
▁listed
aughters
▁polite
▁unlock
▁paused
▁utopian
inth
▁combin
▁combinations
ublin
▁Asia
▁irish
▁stairs
ureaucr
▁Poet
▁gaz
▁planets
▁motif
▁newly
▁secants
▁parame
▁paras
vas
iliar
▁pilgrim
▁voted
▁perfume
▁Something
▁wings
▁J.
▁superintendent
▁rebels
▁rebuild
▁heroic
itially
▁Profess
▁Program
▁sending
▁voting
▁Almost
▁Albert
▁ethics
abasc
thabasc
▁psychology
▁psychoan
iazza
▁phosphor
▁evid
▁evidenced
ifth
▁placing
▁consisting
▁visiting
▁unload
imilar
▁assimil
▁postwar
ometers
▁lovel
▁1910
▁1912
▁spontaneously
▁marshall
▁concession
▁enlist
▁forecast
▁delaware
-Saxon
hes
▁cohes
▁votes
▁Turn
▁sprang
▁Flor
▁watercol
▁year.
▁continuation
▁systematic
▁chapters
ampshire
▁bills
▁resonance
▁stake
▁sturd
▁mortar
▁Tele
▁attempts
▁crest
▁apprehension
▁dialys
acle
▁abuse
▁abilities
▁tip
▁precip
rad
▁dividend
step
▁sheep
▁unaware
▁etc.
▁abundance
▁diamond
▁duplic
▁dos
vers
▁squat
▁squares
▁applicable
▁painfully
▁cement
▁ceas
▁vibr
▁solo
▁accumulation
▁circulation
▁alienation
▁Economic
▁privacy
▁transformed
▁nerves
▁strengthe
▁strengthening
▁uncon
▁ignored
▁ignorance
ibl
iblical
▁models
oz
cred
credible
▁authors
▁goals
▁rises
▁melod
▁days.
▁brut
▁brutality
▁nursery
▁misery
▁statute
▁orleans
▁Orleans
▁operators
▁informal
▁humanity
osity
▁mos
▁furnishing
▁furnace
▁cheer
▁brisk
▁Marshall
▁tested
▁Middle
▁elder
▁parker
▁fewer
▁propose
▁discretion
▁carri
▁clark
cknowledged
▁worthy
ersey
▁intermed
▁intermediate
pons
▁irrespons
hr
▁coalition
▁Des
▁Desp
▁Despite
▁Dick
▁dick
▁wick
inity
incent
▁sinister
grade
▁onset
▁fatal
▁lion
▁fogg
-g
▁serge
▁inventories
eddy
onsciously
▁consciously
▁cort
▁distort
▁cord
▁murmured
▁vern
ogn
nold
▁libert
▁Gorton
▁"R
▁0.
▁radically
▁pm
▁advised
olph
aired
▁mythological
▁eighteen
▁obst
▁presently
▁tends
▁races
▁lucy
▁commend
▁bend
▁reaches
ordination
▁coordination
▁eggs
▁fortunately
▁antique
tructured
▁unstructured
▁Coop
▁mart
▁mcc
▁compulsivity
▁historically
▁allowing
▁enlarg
ymphony
▁Harold
apeut
icnic
▁picnic
▁shrink
ongh
aton
▁locked
▁stretched
-B
▁commander
ering
erge
▁emerge
▁processing
eriff
▁sheriff
▁skiff
▁surrounding
itzer
acter
▁bacter
▁Parker
▁plank
▁turk
▁awk
▁awkward
▁ring
▁rip
ising
▁typew
▁typically
▁tyr
▁tyranny
▁Later
▁compartment
▁validity
amily
▁sandburg
▁passes
▁hoping
▁shouting
▁shouted
▁prox
istically
▁belly
▁belov
▁definitely
▁instantly
▁oppress
▁albumin
▁publicity
press
▁unpreced
▁romance
▁meets
▁mothers
▁Vol
▁quantitative
▁avenue
▁approve
▁printing
▁civ
▁civic
▁wedding
▁Illinois
▁limp
▁ling
▁lingu
▁linguistic
▁lid
▁congru
▁According
▁illuminated
▁stol
▁stove
▁stolen
▁combust
iberal
▁Bay
▁array
▁reappear
▁stein
▁vessel
onald
▁disguised
▁finest
▁manufacturer
▁manufacturing
▁featur
▁donald
▁selective
▁voy
▁voyage
▁Roy
avana
▁plate
▁1947
▁shorter
▁sociology
▁shrugged
▁accused
athology
▁polished
▁compact
▁vocab
▁acquiring
-hour
▁missouri
▁battens
▁amp
▁ample
▁patents
▁dang
roit
▁detroit
itr
ris
sunami
▁tsunami
▁shifted
▁reinforce
▁Jr.,
▁187
▁maladjust
▁mons
▁soap
▁ingen
ossom
▁blossom
ers.
ollywood
lywood
▁hollywood
▁Complet
▁combine
▁gotten
19
▁monot
▁sank
▁associates
▁graduates
▁opens
arah
▁inspir
▁counting
▁adopting
▁claimed
▁ninth
▁wreath
▁antibodies
▁bitterness
▁adapted
▁explosive
▁words,
ez
yard
▁beard
▁ard
hand
▁favorably
▁optimum
▁courts
▁blocks
▁paroch
▁parochial
▁honors
▁scored
▁utopia
▁justified
▁thermometer
▁revolver
apeutic
▁dressed
▁Commer
▁Commerce
▁rabbit
▁coolidge
▁beatnik
▁bunch
▁bid
▁robber
sburgh
ittsburgh
▁affected
-W
ecutive
▁atlanta
▁reserved
▁ic
▁technic
▁simplic
▁simplicity
thony
▁resulted
▁controlling
▁alongside
▁precipitated
▁harry
▁Harry
arryow
▁tribun
umulative
▁kansas
▁Kansas
▁Tech
abash
▁involution
▁bounced
-run
ujillo
2)
▁(2)
▁retrieved
herited
exper
▁Are
rell
▁conformity
▁unnecessary
▁violation
▁constructive
▁respective
▁respectable
▁antitr
▁antitrust
▁marry
▁liver
▁bronchiol
▁vessels
▁baltimore
▁adjusted
▁Mayor
▁scand
▁merchand
▁Last
sec
▁reflex
▁refers
▁typewr
▁breeze
fl
hl
▁holder
eros
▁Los
ositive
▁Similar
▁cul
▁culm
▁harold
▁ears
habit
▁Edd
▁Jul
▁rect
▁odor
▁cylindrical
▁cylinder
▁"T
▁dair
▁dairy
▁bureaucr
▁autumn
▁marshal
▁unrel
jamin
▁blues
▁daughters
ilization
▁veil
▁bubbles
▁albert
▁Palace
▁attempted
illed
▁corridor
orient
▁drag
▁lag
▁lagoon
ultmann
habitants
▁Ke
▁pipe
▁discrepancy
▁copper
▁copies
▁cope
▁copern
▁stabil
ulously
▁applying
▁conn
▁recording
▁Coast
▁creatures
▁rugged
vocado
▁fraud
▁applaud
▁disposition
▁cosmic
thabascan
▁nude
▁firing
▁analyze
▁monopol
▁exclaim
rapeutic
▁introduce
heim
arse
ara
ourse
▁linear
▁progressive
▁Five
arryowen
▁arteries
▁$7
aviolet
▁ultraviolet
▁lav
▁accumulated
▁reconstruction
▁chandler
iot
iants
▁giants
week
▁unemployment
▁daylight
▁moonlight
▁denominations
olecul
▁spokesman
▁retention
▁verbal
zold
turn
▁Look
▁1930
▁1940
▁250
▁abolition
sky
insky
▁stems
▁so-called
▁statutory
▁blockade
▁Mus
▁stew
▁Matsuo
▁matsuo
▁merg
▁swing
▁neighboring
▁Negroes
▁Lucy
▁aver
▁averaged
▁urgency
ini
▁persuasion
▁semester
ars
arskjold
▁Hammarskjold
▁hammarskjold
▁summar
▁compensation
▁drugs
▁bronze
▁turns
igan
▁Michigan
▁michigan
▁aesthetic
▁interl
▁bankrupt
▁chiefly
▁lively
lessly
▁shortly
▁lightly
atisfact
▁trait
orious
▁glorious
ector
▁Rector
▁Ramey
▁coc
▁sizable
▁makers
▁earthqu
bre
ibb
▁curb
▁Ob
▁Oct
▁Shar
▁Sharpe
▁coupled
oulev
▁Barn
-n
▁Method
89
▁conceal
▁conceive
▁occupy
▁occupation
▁baker
▁150
▁emperor
ained
oked
▁longterm
▁carved
▁congruence
▁attracted
▁rooms
▁aristotle
▁Democrat
▁mat
▁mason
▁tooth
othy
▁indispensable
ilitary
▁rebellion
▁combustion
▁Fig.
▁slee
ierre
▁autonomy
ayette
afayette
▁specialized
▁mode
▁farewell
▁fresco
▁fond
▁fury
▁vagina
▁promising
▁Swift
▁educator
▁carriers
▁casually
▁Barco
▁raz
▁razor
▁raid
abriel
▁Rel
▁buying
-all
▁over-all
▁cumulative
▁Pacific
▁pacific
▁battery
iding
▁closing
▁hanging
▁creativity
▁engender
▁returning
▁ramey
▁gasp
▁erup
loy
▁facility
▁Above
▁mull
▁(and
eland
▁republicans
▁chores
▁flame
greement
▁Agreement
avement
▁recognizes
lavery
-H
▁accounts
▁Table
▁oy
▁distributed
▁SBA
▁sons
nabel
▁cockp
▁cockpit
polog
ologic
pic
▁conspic
▁judges
▁knot
▁knuck
▁duck
arians
▁ensemble
▁shipments
▁castro
▁Navy
▁NATO
▁Hand
▁Otherwise
enz
arried
▁contention
▁fitting
▁instrumental
OD
▁beneficial
▁imprison
▁converse
unc
▁transpar
▁publicly
▁hollow
▁waist
▁tum
▁torr
▁touches
▁controversial
▁coarse
▁melodies
▁fertility
▁kne
▁electoral
▁disrupt
▁hated
unn
oqu
▁eloqu
▁enlight
▁well-
▁indirectly
▁ruined
▁lined
▁Relig
▁subjective
athet
▁excellence
atrical
▁pope
▁pressures
ihood
▁aspir
▁regularly
roach
reach
bach
▁Pre
▁Post
▁Pathology
▁polyether
▁Lat
▁Latin
▁congrat
▁jan
▁participating
assau
auge
ays
▁sturdy
▁Jean
▁Foreign
isan
▁partisan
ennis
▁quantities
▁loves
▁comprise
▁losing
▁preferably
▁eighty
▁mickey
▁Mickey
▁majest
▁dislike
▁African
▁african
▁bacterial
▁bapt
▁bod
▁invitations
▁consisted
▁mg
▁sway
▁soup
▁whiskey
▁whisky
▁independently
▁slack
▁motions
▁acceleration
▁Capitol
▁capitol
▁tab
▁tie
▁turb
▁tensions
▁tale
▁cart
▁correlation
atern
▁jean
▁Volume
bidden
bird
stro
kstro
kstroh
kstrohm
▁corruption
▁psychologist
▁fatig
▁fatigue
▁approaches
▁describes
▁enabling
▁enabled
▁wrinkled
▁flung
▁clung
▁prone
▁prow
▁princess
▁Report
▁Lady
▁sherman
▁registered
▁omin
▁predomin
▁auditorium
▁premium
iscover
apor
▁vapor
▁Bob
▁directors
-hand
▁spectators
▁upstairs
▁hen
iffen
ymp
ympathetic
▁intact
▁Turk
▁monstrous
astrous
▁disastrous
▁fed
▁morphophonemic
▁framework
▁spectrum
▁rushed
▁bob
▁strand
▁illustration
▁illustrate
▁Communism
win
▁Within
▁afflict
▁Italy
▁slaughter
▁uncomm
▁standpoint
▁ladd
▁lane
▁belgians
▁Russians
▁jul
uls
ulsion
ulations
▁Supreme
▁tales
▁exercises
▁bridget
▁coordinated
▁emanc
▁emancip
ancing
ipus
edipus
▁slip
▁grip
▁missed
▁zg
rd
▁herd
▁vitality
▁impersonal
▁meal
▁forthcoming
▁proceedings
▁halfway
▁driveway
▁affix
▁affil
clusion
▁strongest
seas
▁overseas
▁micrometeor
▁stack
father
▁grandfather
▁railway
theast
aste
▁emerged
▁Obv
▁Obviously
▁furiously
▁Spenc
▁faded
▁reconstruct
▁reconsider
▁1040
through
rought
▁conced
▁Red
ared
▁infrared
▁pressed
▁irrelevant
axwell
▁treasur
▁sociological
▁tense
▁calibr
ibrium
▁pion
▁pione
question
illion
▁King
▁33
ileen
▁phonologic
▁pension
igation
-M
▁Laur
▁nitrogen
▁spotted
▁vermont
▁"to
rylic
▁acrylic
▁sector
▁equitable
▁entail
questionably
▁declaration
▁exchang
▁postp
pert
▁turnp
uffled
▁diaph
▁tack
▁penal
▁frost
itical
▁necessities
▁bolt
▁forg
▁forgiveness
▁reun
▁reunion
▁grab
▁scores
ptic
▁popp
-degrees-C
▁carolina
▁Cop
▁Copern
▁bearing
▁morse
▁sunset
▁Onset
▁wires
▁pioneer
▁lights
▁findings
▁monkey
▁Walk
▁countless
▁clover
▁nigger
▁championship
▁rum
▁Suppose
▁Eileen
▁spots
▁imagery
▁enterprises
▁46
▁56
umid
umidi
▁bru
▁5000
▁cork
▁Ask
▁realt
▁realtors
▁dealt
tw
▁survivors
▁commerc
▁commercially
▁secant
▁landscap
▁disreg
▁disregard
▁anch
▁anchor
che
▁dialysis
quis
merican
-American
american
amiliar
▁unfamiliar
▁unfold
▁unfair
▁slipp
▁microorganism
▁santa
▁Santa
▁womens
acc
dale
▁illum
▁lumin
▁shaft
wind
▁accordingly
▁insufficient
▁shovel
▁cardinal
▁cards
▁pituit
asso
icasso
▁costum
nam
noons
▁afternoons
▁untouch
▁Development
▁tremble
▁indicating
▁turnpik
▁stride
▁doorway
▁kil
▁Patch
▁Patchen
▁turnpike
▁tourist
istence
▁dome
▁parked
▁parking
▁Shayne
▁Cal
loyd
boh
▁waved
▁Fred
▁ridge
gn
▁pregn
▁Up
ffair
▁popularity
▁pupp
▁peril
▁Harbor
▁preparing
▁preparations
▁messeng
▁plastics
▁tilghman
▁Montgomery
▁montgomery
▁crimes
▁thereafter
▁statistics
▁viv
▁domain
▁grinned
▁solicit
▁1944
▁Twent
▁separation
▁certainty
▁injury
▁whist
-free
awaii
▁sunny
▁Rem
▁allocation
11
▁descent
-third
yth
ytholog
▁demytholog
▁pyth
▁python
▁readiness
▁monthly
▁vaguely
▁player
▁coincidence
▁coincide
▁trials
▁delegates
▁parasympathetic
▁laur
▁exhibited
▁studying
▁beam
▁obliged
▁sentimental
▁ultracent
▁females
▁subsequently
restr
▁proprietorship
▁hans
▁fences
▁occurrences
▁occurring
▁Maris
▁colored
▁capability
▁trading
▁Jane
▁sweater
▁Brand
log
▁crawl
▁eliminating
▁wider
▁fans
▁intr
▁intrig
▁lectures
uously
▁tremendously
▁enormously
▁weep
▁champag
▁champagne
▁revers
antern
▁lantern
▁oban
olate
iterate
▁Him
▁raises
▁tubes
▁anglos
▁anglosaxon
▁finite
▁eileen
▁elb
▁chapel
▁maintaining
▁vulnerable
▁texture
▁Education
▁psychologists
▁disposed
▁unlimited
▁rug
▁canvas
▁madison
urrow
▁aristocr
▁(T
▁listened
▁listeners
▁attached
▁gifted
▁gap
▁relationships
utter
ts
▁"E
▁gay
▁gle
▁gleam
ayabash
▁celebrated
▁remaind
▁remainder
▁participated
▁Telegraph
▁refine
▁poised
▁recurr
ang-J
juries
▁keel
▁generator
▁grind
▁susan
anned
tow
▁bestow
ware
▁dare
▁nerve
▁irrad
▁perceived
▁nap
▁Hollywood
ched
chem
chemical
cher
▁Special
▁stimulus
▁tappets
▁denomination
▁plumb
entagon
▁tasks
▁northeast
▁Mon
▁Steph
▁inhibit
phere
▁commuter
ossip
▁gossip
▁tender
▁tended
▁bars
▁intervals
ieties
▁absorbed
roduction
▁Fair
35
▁embodiment
▁bore
▁distaste
▁preventive
▁Lee
▁spectator
▁welcom
▁freew
▁adventures
▁commitments
▁commitment
▁delayed
▁sensible
▁leads
▁guns
▁gorton
▁metaphysics
rosis
▁proceeded
odore
▁cooking
▁misunderst
▁misunderstand
▁kids
▁houston
▁bangj
pot
▁forgot
▁defeated
▁protective
▁derive
▁specialists
▁regretted
▁middle-class
▁scott
▁scour
hour
▁rejection
▁refrain
▁Holy
-dr
rick
▁centrifug
▁coron
▁media
▁epis
▁episode
▁privately
-ey
▁ruling
▁ok
▁Nixon
▁nixon
▁trop
▁tropical
▁squeezed
▁obanion
▁argues
▁blink
▁fan
▁middleclass
▁continental
▁foundations
▁explanations
▁fastened
▁Occasion
▁companions
▁conquest
ennial
▁solar
arious
ilborn
ilghman
▁Tilghman
ilibrium
▁equilibrium
▁dramatically
▁gentile
amel
amela
ersted
▁oersted
▁Oersted
-mile
▁statist
▁statistical
iston
ieze
▁frieze
▁elected
▁promises
▁penalty
▁binding
▁customary
▁arises
▁gram
▁Bal
▁Baltimore
▁Eddie
▁childrens
▁bangjens
ang-Jens
▁periph
▁epiph
▁ambival
interest
▁travell
osed
imposed
▁hypothetical
▁ticket
▁formally
▁luminous
▁purport
▁purple
▁appet
▁charming
▁ingenious
▁yach
▁typewriter
▁expressions
▁Sept
▁crept
▁watercolor
lav
oslav
ugoslav
aug
aque
▁dialogue
▁alliance
▁faster
master
▁Would
▁Win
▁Winston
▁Women
erm
▁symbols
▁attic
▁eventual
▁quoted
▁comr
▁comrades
▁organism
▁tilted
▁gramm
human
▁solutions
lands
▁Portland
▁territories
▁envision
▁hardship
▁exercised
▁peg
▁flor
▁Century
▁shelf
▁privileged
▁Newport
▁reminded
▁Year
▁underwater
▁*y
▁unst
▁myst
▁(B)
alta
▁roberts
▁thoughts
▁electronics
▁congest
▁Pope
▁Howard
osp
iven
▁abandoned
▁dissatisfaction
▁Ac
athy
▁fabrics
▁hardy
▁frighten
▁deliberate
▁Tim
▁unav
▁unavoid
▁unavailable
▁relent
▁ruin
▁Forest
▁lob
▁lodge
burse
burst
▁diverse
▁insane
▁jane
▁Davis
▁davis
▁fires
▁fate
erosol
▁archaeology
lessness
▁continent
▁contraction
▁inclined
▁incredible
▁ov
▁inherent
▁nato
umont
▁diagnostic
▁recalled
▁lawn
▁reassurance
▁obstacle
▁Completion
sters
▁youngsters
▁spirits
▁occurs
▁proposals
▁spur
ecd
ecdot
▁alec
▁overlook
▁prevented
▁purchased
▁crowded
▁justification
▁offering
▁laughing
▁Austr
inster
minster
▁Bureau
▁sax
▁roast
▁suspicious
▁charco
▁vocabul
▁Ol
▁Fl
▁Follow
▁gratitude
tily
▁hastily
▁unsuccess
▁suggests
▁sprawled
▁decrease
▁whereby
▁gown
▁germans
umbrell
▁smoothe
▁staged
▁stature
comes
▁electrost
▁developments
pton
important
▁smiling
▁devast
▁Hans
▁sounded
▁carryover
▁Manhattan
▁tar
eegan
atanga
▁Orchestra
▁segment
▁bases
▁tumor
aker,
▁rope
▁Beyond
▁considers
▁pile
▁professors
▁cohesive
▁deficiency
▁describing
▁ratt
▁inval
▁invalid
▁elevator
▁illumination
▁"n
▁microph
▁nuclei
▁eyebr
▁Elaine
▁credited
▁resembl
▁resemblance
▁Organiz
▁translate
▁159
▁collision
▁basketball
▁woods
lets
▁prostitution
uddy
▁shudd
flow
▁Hous
▁Houston
▁vow
▁collage
▁imply
▁Early
▁irony
▁advocate
▁undertaking
▁reactionary
▁pituitary
▁vocabulary
▁ambush
▁draf
▁negotiate
▁faulkner
▁me.
▁deposit
▁epithe
▁tools
▁cereal
▁governmental
alph
▁anchored
▁infancy
ifiable
▁columns
iev
row
▁elbow
▁pin
▁availability
▁drastically
▁cm
▁cough
ms
▁miracle
▁disarmament
▁successor
▁corners
inting
▁ignorant
vant
advant
▁disadvant
▁lev
▁lex
odium
itzerland
▁Maryland
▁polish
rish
▁Irish
▁hut
▁hook
▁codes
▁hart
wart
▁door.
esides
▁Besides
▁classified
▁conqu
tolem
▁oedipus
▁Oedipus
▁oak
akable
▁destined
▁destination
▁tones
urity
augur
▁suppress
▁slim
▁quad
ada
▁canada
▁cad
▁hand,
▁footstep
▁Should
▁cellulose
▁Therefore,
▁palfrey
▁scorn
▁admirable
▁twentyfive
▁twenty-five
▁expressing
▁abdom
▁20th
▁Anglo
▁Anglo-Saxon
▁apartments
▁fusion
tonishing
▁specimens
arc
arst
▁Hearst
OC
▁accelerated
▁originated
▁cavity
▁tunn
▁explore
▁superiority
▁prosperity
▁ninety
yan
▁mercy
▁Mason
▁permanently
▁"l
▁autonomic
▁entering
▁alve
▁uncomfortable
▁modernization
▁swoll
▁swollen
▁tears
▁burg
▁nighttime
▁conjugates
▁Vern
▁hymen
▁eloquent
▁costumes
▁elite
▁elimination
▁poultry
ogg
▁Fogg
▁adher
▁violin
▁amaze
▁breaking
▁johnson
▁johnny
▁day.
▁downward
▁Dec
▁elegant
▁shorts
▁imposed
▁drying
▁testing
▁staring
▁stars
▁falling
▁lists
▁Keith
▁dent
▁full-time
▁Viet
▁viet
▁cheese
▁commute
▁thyrox
▁porter
▁porous
▁179
ena
itten
chestr
▁resumed
▁indications
▁Eugene
▁eugene
▁Interior
▁deterior
▁kidney
▁dece
▁perce
▁perceive
▁resume
▁resumption
▁ladder
▁ultrason
▁lend
▁loun
ql
iql
▁sisters
▁jersey
▁Jersey
▁abruptly
▁repeatedly
▁intent
▁drifting
▁missionary
▁slump
▁shaking
▁principally
amor
▁translation
▁orientation
▁translated
mosph
mospheric
▁boom
▁conceivably
▁malraux
▁suic
▁suicide
▁Harris
emorial
▁exploited
▁days,
▁tort
▁tortured
▁efficacy
▁Temp
▁teasp
▁raced
▁align
quet
▁Kitt
▁57
87
▁aspirations
▁Unt
▁Until
▁evaluate
▁involvement
▁"public
▁umbrell
▁uncover
lord
▁landlord
▁pupils
-tw
▁Hence
see
▁(see
▁dispers
▁chip
coats
rock
roc
▁reciproc
▁scandal
▁Maj
▁Mac
▁unmist
▁incorporated
ypt
▁egypt
▁(with
▁dazz
▁speculative
▁specify
▁accommodate
▁visitor
▁surrounded
▁establishing
▁everyday
▁Mull
▁clue
▁horrible
▁horror
▁McK
▁bobby
▁couch
▁cautious
atell
▁satell
▁Mad
▁Madison
▁composite
▁spaces
itiated
▁sentences
▁meaningless
";
▁E.
▁encroach
▁Im
▁contributions
▁Jews
▁savings
▁Sand
▁Sandburg
▁hind
▁hint
▁hail
boro
▁enlarge
umblebe
▁chromatic
matic
▁electrostatic
▁kilometer
▁Co.
▁deem
▁realities
▁Christianity
▁christianity
▁males
ayana
oft
oulevard
▁steele
▁swoop
ometry
▁electrons
▁W.
▁spinning
▁posit
▁positiv
▁posse
▁ego
▁interd
▁"g
▁childish
▁Stadium
▁inflict
▁visc
▁Force
▁que
▁carriage
▁gum
▁gulf
▁appreciated
▁appropriated
▁identities
▁mines
▁ministry
remier
▁telegram
▁woke
▁input
▁1942
▁1943
▁1941
▁varieties
▁undue
ste
stein
e,
▁organize
rode
▁Symphony
▁handed
▁disturbed
▁halted
▁then,
▁lacking
▁settling
▁ripp
▁villages
▁averages
▁Gold
▁choices
▁allies
▁anonymous
▁specially
▁Harvey
▁grief
▁comfortably
▁hopp
▁freez
▁catalog
▁irradiation
▁"Y
▁mahogan
▁Frankfur
▁unadjust
▁modified
▁durable
▁films
▁pir
▁Burn
oris
▁transferor
▁proclamation
▁wishes
tes
▁grotes
▁grotesque
▁withdraw
▁hiding
▁swear
▁imb
parable
▁limb
▁fighters
▁imperative
▁imperial
▁warned
▁misfortun
▁forgive
▁slop
▁esp
▁dump
▁businessmen
▁Felix
▁felix
▁census
▁39
▁morris
▁linguist
▁leis
▁leisure
▁planes
▁unhe
▁Corpor
tally
▁Jim
▁anaconda
▁retard
▁Brumidi
▁Brannon
▁leaped
▁intelligible
▁overhead
▁Barton
anim
▁unanim
▁namely
▁tightly
▁insulation
▁goods
▁rating
▁logic
▁maryland
usions
agging
▁Donald
▁prohibition
▁plaint
▁acquaint
▁viscosity
▁masterpiece
▁$6
▁$8
▁technicians
▁rubbed
'dikkat
s'
▁manip
▁Puerto
▁puerto
▁galax
▁recognizable
▁hamilton
▁lightning
▁swore
▁elastic
▁antiqu
▁missing
▁feeding
negative
onnaissance
▁(D
▁pickup
ifties
cellaneous
▁72
▁sera
▁Republicans
umumb
▁unsatisfact
▁averaging
▁162
irl
▁transit
▁transaction
▁wag
▁wagons
▁Warwick
▁hitting
▁distilled
▁bastard
TV
▁mileage
▁plainly
▁guarante
▁happening
▁spacious
▁barefoot
idel
▁launder
▁snapped
▁parttime
▁fulltime
▁Colon
▁concerts
ythe
▁neon
▁prejudice
vention
▁plentiful
▁ominous
▁prospects
▁cautiously
▁habitat
▁overt
law
▁satisfactor
▁satisfactorily
▁lump
rons
▁patrons
▁Nick
▁penny
▁deputy
retched
▁part-time
▁creek
wild
▁Ham
▁Hamilton
▁wrist
▁girlish
-out
-type
▁inhibition
▁nutrition
▁Hart
oliage
▁happier
▁Finally,
▁Broadway
▁interchange
▁Revenue
▁florid
▁differential
▁10000
▁scout
▁academy
▁shortage
▁pas
▁mas
▁mascul
▁mol
▁assuring
▁1917
▁accred
▁policemen
▁cigarettes
▁marines
▁preoccupied
organic
▁awaken
▁dependence
▁unprecedent
▁architecture
▁conclude
▁Pip
▁returns
▁naz
▁Naz
▁addresses
▁trevelyan
▁spat
▁spun
▁magnet
▁guided
▁stretches
▁dominance
▁cance
-haired
▁Milton
▁2.
▁loudly
▁agreements
etery
emetery
▁cemetery
emph
▁Bang-Jens
▁Connect
▁weekly
iour
▁adjo
▁adjoining
▁ugly
▁composers
▁dramat
▁obstruct
▁aggreg
▁dreadful
▁youthful
▁aroused
iqlal
▁appetite
orus
▁chorus
▁Krim
▁krim
▁altered
elp
▁governing
▁melting
ovsky
▁Bord
▁curs
▁structures
▁remembers
isphere
▁disagreement
▁indictment
▁reflects
▁diminished
▁Yes,
▁unimp
▁overwhelming
lean
▁Mean
▁Meanwhile
▁worthwhile
▁eichmann
▁Eichmann
▁subsistence
existence
▁manpower
▁phony
▁adoption
▁indec
▁prede
▁predecess
▁scree
▁See
▁keen
▁keith
▁sul
▁phonemic
▁indicator
▁adhes
▁41
▁tennessee
▁prediction
▁plaintiff
▁Affair
▁banquet
▁frankfurter
▁Johnny
▁perpetu
-19
▁inquiry
▁elegance
▁convuls
);
▁shrew
▁causing
▁BOD
▁americas
▁conceivable
▁sergeant
▁disab
oyce
▁Joyce
gar
▁S.
▁Simm
▁negl
▁negligible
▁theater
▁parish
▁loos
bb
▁cush
▁cushion
▁chromat
▁chromatography
▁Is
▁Israel
▁specialist
▁comparatively
▁magg
▁magical
▁missionaries
▁conscient
▁conscientious
-mind
▁conspicuously
▁consecutive
asteur
asteurization
opasteurization
▁dystopias
▁nond
▁strat
▁democrat
▁formid
▁formidable
▁epid
▁epidemic
▁intercept
▁suscept
▁heads
ependent
▁armies
▁Forces
▁cambridge
▁sel
▁selkirk
-bl
▁archaeological
▁Cuba
evelop
▁locate
▁ghet
▁ghetto
▁guerrillas
▁guerrilla
▁$10
▁Student
▁transparent
▁natives
▁psychiatrist
▁Unfortun
▁checked
▁shaped
▁retained
▁pertain
▁unmistakable
▁dropping
▁feud
▁displeas
atism
▁conservatism
▁harvey
▁totally
ca
▁pans
▁shattered
neapolis
▁anne
▁extrud
▁Premier
▁bleed
▁bleak
▁slum
ifiers
▁gods
-school
▁Nob
▁Nobody
▁cubic
itic
▁blindness
▁magnification
▁communicate
▁anticipate
ollar
▁Podger
▁arkansas
▁Arkansas
▁Artic
▁banks
sons
▁orthodox
▁induce
▁rental
ospel
laim
▁fathers
▁scholars
its
itage
▁heritage
▁na
▁naive
▁signals
▁Ben
▁formulation
olation
olas
icolas
evie
brew
▁harris
oat
aters
▁allowance
▁publications
▁emotionally
▁therefore,
▁markets
▁covers
▁collaps
▁assets
▁illiterate
▁airplane
ulton
unct
▁veto
▁gut
▁clayton
▁intuitive
garet
▁incap
▁incapable
▁Taylor
▁Column
▁doubled
▁mare
▁drastic
▁fox
▁severely
▁sectors
▁familiarity
erger
▁riot
▁socialism
elli
▁drainage
▁barton
-the
▁pinch
▁hysterical
bel
▁picket
▁"J
▁well-known
▁microscope
▁energies
▁impartial
▁nonetheless
▁candy
▁silk
▁meantime
▁reconnaissance
▁dusty
▁Fromm
▁hem
▁hemisphere
▁restaurants
▁womans
▁Northern
yllables
▁D.C.
▁preservation
▁preserved
▁compelled
▁Foundation
▁representation
▁peasants
▁pressing
▁Rousseau
▁shaken
▁rehears
52
▁tennis
▁Arnold
▁arnold
▁killpath
illing
▁unwilling
▁tribes
▁ballad
▁simultaneous
▁bust
▁hil
▁hood
▁hymn
etime
▁lifetime
▁frown
▁policeman
▁relevance
▁Outside
▁hughes
▁Hughes
▁obligation
▁gin
inary
▁supervis
▁culmin
▁litigation
▁signature
▁Min
integr
▁disintegr
▁seats
itating
▁correspondent
▁Domin
cles
▁spenc
nected
▁beh
▁behave
▁behaved
▁silh
▁silhou
▁Cook
▁Book
▁Bet
▁Between
▁B'dikkat
▁fierce
▁adams
▁denominational
▁paradoxically
byter
byterian
ges,
▁dough
▁permits
odgers
▁divide
▁Wall
▁Buddh
▁buddh
▁bud
▁tower
▁sewer
▁Mod
▁wholesome
▁recital
▁spong
▁waterfront
▁tells
▁acts
▁actor
▁actors
▁concepts
looking
▁exportimport
ois
▁escaped
▁Throughout
▁Stand
▁edd
▁eddie
▁torqu
icut
▁Connecticut
▁connecticut
▁hoag
▁shayne
▁penetrating
▁dangers
▁katanga
▁designated
▁evaluated
▁radiopasteurization
▁launched
▁elaine
36
▁succ
ora
endora
▁re-
clusive
▁blew
▁bleach
▁71
▁perhaps,
▁indulge
▁Professor
▁mayor
▁Mor
orig
▁aborig
orem
▁'em
avinsky
▁Congreg
prof
bably
▁Probably
viol
▁geometric
▁Geometric
quire
▁kinds
▁elephant
▁broadway
▁quaint
▁Gene
▁Geneva
▁femin
undry
▁peered
▁teenagers
▁ramp
▁articulate
▁pleading
▁ontolog
queous
▁antagonism
▁rebel
▁recognizing
archy
▁floating
▁sung
▁pitcher
▁Speaker
▁requiring
▁vegetable
▁oxford
▁locating
▁locally
▁shaw
ity,
▁permitting
▁bones
phem
asphem
▁blasphem
asma
▁plasma
▁plump
▁44
▁speck
▁beautifully
▁districts
▁scramb
▁scrambled
▁southwest
▁steak
pace
▁sailing
▁graduated
▁lucky
▁bears
restrial
▁jim
▁Does
seven
▁skinny
▁refuse
▁traced
▁tri
▁triang
▁rectang
▁paramount
aress
▁caress
▁Press
-I
▁Chapter
▁slug
▁ekstrohm
▁Ekstrohm
▁Ev
erick
▁Frederick
erable
▁miserable
▁idi
issues
▁tissues
▁tile
▁tv
▁tumbled
▁generators
▁Meek
▁journalism
▁Vienna
▁vienna
▁Vincent
▁vincent
▁vine
▁amuse
▁nucleus
▁producers
▁blush
▁Third
▁quarre
▁utilize
▁zoo
▁iodide
▁shrewd
▁meek
▁brannon
▁Russell
▁patronage
▁Family
▁deposited
▁hire
▁admire
▁boundary
▁approaching
▁year,
▁chamb
▁complained
▁advise
▁executives
▁recount
▁Johnnie
▁johnnie
▁Ernie
▁angles
▁employers
violent
▁aimed
▁telephoned
▁fled
▁knitted
▁eminent
▁emerald
▁mand
▁cave
▁decency
▁connot
iencies
▁dealer
▁prodig
▁span
▁peripheral
▁vinegar
▁populated
▁bail
▁kneel
▁supporting
▁1/2
▁irrational
uted
▁idiom
▁unpaid
imesis
▁Times
▁maris
▁segments
▁criticized
▁critics
▁trimm
▁technically
▁grabbed
ased
▁deceased
las
▁earned
▁leagues
▁personalities
▁nickn
▁nickname
▁jar
▁seventy
▁rigor
▁slightest
▁remed
▁trunk
▁fractions
▁milligrams
▁Pittsburgh
▁pittsburgh
▁evolved
▁Kate
▁broader
▁doz
▁dozens
▁vaginal
▁prosec
▁prosecution
ellow
▁sue
▁spher
▁Representatives
▁110
▁sunsh
▁addition,
▁flock
▁snap
chloride
▁Bang-Jensen
economic
▁serene
▁mock
armonic
▁unsuccessful
▁instance,
▁cerebr
▁Everything
nings
clination
▁doubtless
▁bon
▁bubble
ubblefield
▁airfield
▁bass
pass
▁postpon
▁unsatisfactory
▁Appar
▁Apparently
▁violently
▁cooperate
▁glaze
▁Ju
▁glasses
▁orchestr
▁zen
▁sullen
▁subscrib
haired
▁tourists
ayabashi
iability
iary
▁ardent
▁gauge
▁Vernon
odynam
▁glamor
▁reckless
incinn
▁genev
▁reign
▁Sm
▁Small
▁tom
▁tomb
m.
.m.
▁p.m.
▁realm
▁pine
eline
▁piazza
▁hostess
▁eve
world
ennings
▁kennings
▁blade
▁greeted
▁ranged
▁podger
▁(P
cy
crecy
▁penetration
▁underdevelop
▁perpetual
ache
▁utilization
▁alph
▁searching
▁Anniston
▁dreams
▁coexistence
ies,
▁pansies
▁profitable
▁arising
▁steph
creage
▁cypress
cribed
▁renewed
▁tsh
entuck
potent
ilpotent
▁nilpotent
▁Haney
▁fred
▁frederick
▁brushed
▁shelley
▁miscellaneous
▁disturbance
▁undergoing
▁racing
▁amazing
lying
▁underlying
▁multiplying
▁Sus
▁Susan
ologically
ologne
▁Start
▁Bobbie
▁Val
▁Valley
▁gig
▁gigantic
▁frantic
▁burial
▁sleeve
▁assass
▁financially
igen
▁antigen
▁Gen
▁splash
ego
▁sud
▁taxi
▁ski
rosh
roshim
iroshim
▁Unfortunately
▁disob
okes
▁dazzling
▁currency
▁230
▁blot
▁47
nd
▁amid
etroit
▁Detroit
onghorn
▁Anthony
▁Tit
▁Title
▁(in
▁(M
M.
▁criterion
▁criteria
▁nursing
outherner
▁osc
▁350
▁Kitti
▁attributed
▁falls
▁intel
▁intellect
elect
print
eu
▁maneu
▁maneuver
eem
▁staircase
▁idol
▁idle
▁15th
▁Fund
▁shifting
▁antenna
▁anecdot
elihood
▁likelihood
▁likes
▁interpretations
▁wail
credibly
▁observers
▁bluff
▁palazz
▁pamp
▁pamph
▁pending
▁torment
OCS
▁Upton
▁subspace
▁comprehension
gricult
break
▁plotted
▁ecl
▁trips
▁transmitted
▁vitamin
▁purchasing
icked
▁cher
▁cherished
ager
▁chatter
▁shatter
aments
amic
amination
SH
ouglass
▁bastards
▁Religion
▁paying
trust
▁anti-trust
romb
rombie
▁bulb
▁suits
▁father's
▁screens
▁thyroxine
▁Utopia
essim
▁pessim
▁islands
16
▁182
▁Short
▁adjourn
aggin
▁improves
▁Zen
▁awoke
▁sleeves
▁incest
▁incom
ansom
▁Hom
▁Homeric
ahom
lahom
▁Mah
▁profits
▁devote
▁muffled
▁A.M.
▁tore
▁foliage
▁governors
two
-F
▁alaska
▁distortion
-shot
▁Ox
▁Oxford
oux
▁producer
gans
▁organs
▁54
▁horm
▁hormone
▁bulky
enny
▁Philip
▁Father
▁Ell
▁summarized
▁qualification
▁Miami
▁Key
▁alternate
quar
-dimensional
▁pursued
▁Use
▁referring
▁celebration
▁rook
▁Westminster
▁westminster
▁Natur
▁Simp
▁stoop
pok
poken
▁Ten
▁Tennessee
▁discomfort
ka
▁marij
▁marital
▁simplified
▁hideous
imeter
▁butter
▁meg
▁me,
gypt
▁Egypt
▁beg
▁begged
org
orgsky
▁georg
▁Director
▁geometry
▁Wisconsin
▁anatomical
-made
green
▁subsidiary
▁fuzz
▁muzz
▁fame
▁ma
uing
▁forbidden
ienville
▁waving
▁wisconsin
▁dental
avors
▁Jud
weitzer
▁mariju
▁marijuana
▁filing
▁poign
▁unanimously
▁fragile
atie
▁ago,
▁Phys
▁colleague
▁48
vol
▁posture
▁Griffith
▁amazement
▁Nevertheless,
▁joyce
▁solidar
▁solidarity
management
▁stockade
▁Giffen
▁airplan
▁cogn
▁Addition
llor
▁chancellor
▁assemble
▁resemble
▁Security
▁accelerometers
lec
▁Alec
▁yankee
▁assuming
theart
▁portions
▁mercen
▁mercenaries
▁mercury
▁compulsive
▁wounded
▁drifted
▁homeric
▁homer
▁precarious
▁acclaim
▁treaty
▁Auto
▁alveol
▁Const
▁ecst
▁tobacco
▁unquestionably
▁stroll
▁Carroll
▁static
▁stating
▁stal
▁stare
yp
priced
▁virus
▁Had
▁purposes.
▁sodium
warf
▁64
▁memorable
▁peters
▁string
▁strings
▁applicants
▁embro
▁decre
▁sarah
▁Sarah
pirit
▁transpir
▁summit
▁summers
▁day,
▁wired
▁cancer
▁Guard
▁wolf
▁himself.
▁rejo
▁packed
cestry
▁fring
▁fringe
▁simplest
▁batting
▁(or
rov
▁replacing
▁succumb
▁russell
elled
▁(E
▁annoyance
▁bobbie
▁bdikkat
▁clergyman
▁salesman
▁lamb
-conscious
▁tune
▁swiftly
▁Royal
▁Dolores
▁dolores
▁Daily
▁hudd
▁outright
▁now,
▁cooperatives
▁expanded
▁Ver
▁Vermont
▁assail
▁shots
▁planners
▁conson
▁consonant
▁shu
▁shake
▁thaw
▁indicators
▁sensual
▁Bern
▁Bird
▁bern
▁Modern
▁mustard
▁Johnston
▁johnston
▁liberalism
▁boge
▁faithful
▁opt
▁Freddy
harmonic
▁analytical
▁thirst
▁qualitative
▁legislator
etric
▁symmetric
▁integral
▁integrated
▁starts
▁nonsense
▁southerners
vet
▁wallpap
emost
anford
▁cake
▁earthquake
▁Furthermore,
▁rousseau
▁martyr
▁accr
▁accruing
▁accuse
cop
roscop
▁said:
▁sloan
▁sincer
alytic
▁Kowalski
▁kowalski
▁Calif
▁gaze
BM
ally,
eller
efeller
44
ibrary
▁graham
▁condemned
▁griffith
▁bidd
anita
▁pathological
▁bargaining
berry
▁pharm
▁shades
▁strewn
▁victories
▁accreditation
▁proprietor
▁extrapol
view
▁Dominican
▁Eastern
▁cliff
▁fulfillment
▁breathed
▁socio
▁rolling
run
▁Gun
▁Germans
▁haney
▁conclusive
▁contacts
▁States,
wight
▁thereof
▁Cam
▁Cambridge
▁orange
▁charcoal
▁work.
▁away.
▁erected
▁carefree
▁slammed
oriented
▁rustling
▁pavement
▁schoolhouse
▁remedy
▁currents
▁loaded
▁aborigines
termination
▁lee
▁accompanying
▁stirring
-six
▁meteoritic
▁stresses
▁gran
▁undergraduate
▁hillside
▁systematically
▁Article
chemistry
▁congressman
▁investors
rei
▁1935
▁1938
▁portland
▁superst
▁superstition
▁formulations
▁symmetry
effect
illpath
▁Killpath
▁Tomm
▁void
▁wrath
▁Kore
▁abandonment
▁prevents
▁ballot
ned
▁remarked
▁Science
▁Son
▁Common
▁Command
▁Land
▁tuck
▁refusal
▁Belgians
▁elephants
▁steering
▁muzzle
▁attendant
▁attending
▁cruising
▁shoe
▁Angeles
▁miami
▁say,
▁Beach
▁journalist
▁Colonel
▁utilized
▁utilizing
▁venge
▁vengeance
15
14
uart
▁guarantee
▁anxiously
▁realizing
▁nutrient
▁kate
▁Product
▁purified
▁crouched
▁out-of
▁traver
▁interdependence
▁interdependent
▁possessed
rep
▁Test
▁Testament
▁sponsors
▁Dep
▁Dan
▁Deegan
▁engulf
▁roleplaying
▁Baker
▁reverend
▁blend
▁Amb
stal
▁nostal
▁nostalgia
▁curled
▁curse
▁kore
-2
brush
▁Congregational
▁federation
icens
▁licens
▁pamphlets
▁bullsey
▁tablesp
▁nominal
-gr
-T
▁punch
▁Rather
dick
osdick
osh
▁Ord
▁Orient
▁transd
▁transduc
▁formulated
olored
▁taylor
▁consultant
▁snapping
▁disadvantages
▁Ralph
▁ralph
▁Big
▁(f
▁puzzle
▁puzzling
▁Belgian
▁aggression
▁pastor
▁bulletin
▁2000
▁manage
stage
adine
▁saloon
▁newport
▁76
▁mills
▁norms
roth
▁deprived
erent
▁indifferent
neath
-story
▁constituents
▁undergraduates
▁purse
robe
▁wardrobe
fect
▁divorced
immy
▁honored
▁Everyone
▁welch
▁Continental
loan
▁Sloan
▁bleeding
▁begging
▁discernible
▁calf
▁Temple
▁adjunct
▁pepper
▁Was
▁graceful
▁Fortun
▁Fortunately
▁Es
▁apportionment
▁infant
itate
▁carrier
▁perplex
▁anniston
▁fertil
▁declarative
▁ernie
▁Sudd
▁Sudden
▁curiously
▁Dickens
▁residents
▁pole
avin
▁Gavin
▁turtle
▁Douglas
▁douglas
▁beloved
▁speakers
▁Queen
▁Washington,
▁Bre
▁Bee
▁exaggerated
▁freddy
▁diaphr
▁diaphrag
▁employes
▁dentist
▁acquies
acies
▁Wel
▁Welch
channel
usually
▁unusually
▁generosity
▁youngster
ierarchy
eld
▁administered
▁Med
▁Medical
▁cynical
ammed
urred
itched
▁dickens
▁warwick
▁stones
▁discont
▁rancher
▁junk
▁noticeable
▁antislavery
▁frustrated
EA
▁Alaska
gean
egean
▁keelson
▁volta
▁volley
▁bodybuild
rophy
▁Which
▁successive
olitical
affirm
▁reaffirm
▁consumm
▁Beowulf
▁encounters
addy
▁enr
▁enrich
▁enh
yd
▁tires
▁fearful
▁Julia
▁julia
sequently
▁Consequently
▁ripe
▁Byron
▁manned
▁frenz
▁monastic
▁buffal
▁buffalo
icus
▁copernicus
▁Copernicus
▁flourish
renaeus
▁preparatory
▁guarantees
lahoma
▁oklahoma
▁morale
▁Brid
▁Bridget
adget
▁gadget
▁toll
▁molecul
▁kern
▁earnings
▁Often
▁dilution
enheim
iless
▁700
▁abolish
▁Laboratory
▁barrier
▁italy
▁ugliness
ymphoman
▁admiss
▁admissible
▁irresponsible
-G
▁earthquakes
▁burns
▁temperatures
▁sticks
▁deplor
▁muddy
elike
▁frances
▁caliber
▁irresist
▁irresistible
▁boredom
▁teaspoon
▁stressed
port-I
▁Export-I
▁Winchester
ymphomaniac
▁encomp
▁marvelous
▁inquired
ermud
urious
▁luxurious
▁disbel
▁fer
▁ferment
▁fidel
▁practition
▁exterior
quisite
berr
▁hydr
▁investigate
▁prohibited
▁Superior
▁slash
▁Well,
▁notes
▁vectors
▁shov
nov
oves
▁successes
▁Members
crimin
▁owner
▁reinforced
▁Yankee
▁stimulated
▁1963
▁nomination
▁mate
▁Whate
▁Whatever
▁interp
▁Rico
▁rico
▁refrigeration
▁politically
▁mexican
▁Mexican
▁mitchell
▁Mitchell
▁Music
▁reveals
▁deepest
atz
▁Week
▁comprised
▁cats
▁grok
▁groc
▁musk
▁descriptions
▁rocket
▁sterile
▁noted
mates
made
▁Gard
eb
▁dual
arine
arl
-war
ologians
▁illustrations
▁couples
▁Engine
ivial
▁trivial
▁fratern
making
uscript
acon
▁screech
▁diversity
ivities
▁bould
▁bumblebe
▁tunnel
▁Billy
▁billy
▁ironic
icans
exicans
▁majestic
▁preference
herence
▁adherence
eeley
▁mamm
erget
▁energet
▁energetic
▁deemed
▁radioactive
▁stability
▁pork
▁pose
▁Alabama
▁alabama
encing
▁gracious
close
▁disclose
urray
▁Also,
▁Richmond
ommitt
▁dun
▁dorm
▁lun
▁lab
▁lurch
▁roots
▁governed
▁Viol
rosine
▁purposes,
▁congen
▁harmonies
▁dynast
▁diminishing
▁Sub
▁Philipp
▁suppression
yroid
ithyroid
▁Florid
▁entities
▁channels
▁insects
▁immigrants
▁linguists
▁negotiated
▁simplify
▁vault
▁interstate
unity
▁immunity
▁testified
▁clevel
▁vases
▁statewide
enched
▁lens
▁tailored
▁capitalism
▁blown
▁unchang
▁farmer
▁meetings
second
▁Author
cloth
▁misc
▁downstair
▁Food
▁grains
li
lies
length
▁wavelength
▁rabbi
▁forthright
▁upright
▁blades
▁giffen
▁carb
▁chord
▁Ford
▁disturbing
▁dismay
▁angu
▁lunar
elkirk
▁garibaldi
▁69
▁willingness
▁Southerners
▁night.
aited
▁awaited
▁computed
▁accustomed
▁sizes
▁Rad
▁Radio
erate
▁worker
▁passenger
▁isolation
▁Water
▁Indians
▁regression
▁derives
▁fictional
-by
irby
▁ambiguity
▁cranston
▁Cranston
▁keys
▁digital
▁dishes
▁Greville
▁litter
▁emergencies
▁appropriations
▁Baptist
▁picturesque
▁loses
herit
▁TSH
▁Town
▁queens
▁folded
▁weird
▁accomplishment
▁terrain
▁formulaic
▁cocon
▁coconut
-con
▁painters
▁communion
▁lowest
▁thorn
▁plunged
▁guaranteed
▁formulate
ehead
▁forehead
e.
▁sometime
iane
bean
▁deputies
angford
▁resin
▁wonderfully
▁wondering
▁breathing
▁trends
▁frankfurters
-off
▁subt
▁ft
▁fab
▁outset
▁Exper
▁Sk
irling
▁toler
▁secretaries
▁terminal
▁terminate
▁(N
glass
▁Ambass
cern
▁unconcern
▁dimly
▁singled
▁lust
ustin
▁stump
▁epithets
▁hack
attack
▁moisture
.e.
▁i.e.
▁vacant
▁portable
jun
▁amusing
▁fibrosis
▁Glendora
▁hardened
▁hardware
▁bachel
▁significantly
▁intang
▁upset
▁rend
▁rendez
▁Selkirk
▁hasten
▁Fall
▁coats
▁interfere
ancies
▁varies
▁babies
▁icy
▁authoritative
▁dan
▁garb
ba
▁sba
▁pulling
▁cathode
▁iodin
▁skirm
▁pasture
perture
▁grocery
▁pegboard
▁Orlean
▁dive
▁struggled
▁shotgun
▁quit
▁Color
▁Colorado
▁substituted
▁tray
▁spatial
▁swinging
▁dioc
odges
▁scanned
▁sprout
▁Mart
▁supplementary
▁palat
▁palatability
▁allotted
▁concentrate
▁concentrations
▁approximate
▁provoc
▁provocative
▁Ballet
▁skull
▁hull
▁enjo
▁discontent
▁oily
▁restless
▁instinctively
▁noon
▁confrontation
▁Via
▁satellite
▁astonishing
▁Gulf
▁performers
▁performing
▁advisers
ouncing
▁ulcer
▁appall
▁merciless
▁voluntarily
▁stopping
▁nagging
▁niece
▁fashionable
▁haunted
isons
▁subjected
incinnat
umni
▁attacked
pped
▁neurosis
▁chickens
▁generated
▁adults
▁bliss
▁permiss
▁prominently
▁biw
▁neglected
▁swee
▁sweetheart
▁poster
▁posterior
▁discussing
▁crossing
▁tenure
▁wiped
▁dragged
▁dragging
▁economically
ignific
▁cripp
▁philipp
▁crus
▁wheels
▁impuls
▁malaise
agrin
▁Soon
▁proportionately
▁clause
▁Upon
▁wheat
▁flutter
▁athletic
▁unconsciously
▁rage
cott
▁crisp
▁advertise
▁submerg
formed
▁responded
▁respondents
▁defended
olesworth
▁breed
▁breathe
istory
▁revulsion
region
intellectual
▁philip
▁appreciably
▁uniformity
▁rockets
▁physi
▁mimesis
▁encompass
▁Notte
▁exclam
▁perceptions
▁perceptual
▁mathematics
▁sentenced
▁summon
upon
▁allied
▁emptied
▁collapse
▁henri
annah
ahms
opped
▁ministers
▁Its
▁mechanisms
▁embodied
▁feeble
▁thermodynam
▁stray
▁helion
▁grop
▁ragged
▁quint
▁ambiguities
-th
▁valued
▁linked
▁cheerful
▁manuscript
▁381(
▁chauff
ancholy
▁melancholy
▁attempting
▁revenge
ael
▁Michael
umumba
:30
▁pok
▁concord
▁treason
▁trees,
▁gorge
▁blowing
▁lease
▁psychoanalytic
▁repay
aggini
▁superf
▁superficial
▁francis
▁greasy
▁i.e.,
▁affects
▁Edythe
▁skimm
▁Hawk
▁Ho
▁Hoag
▁exceedingly
▁overwhelmingly
▁fragr
▁fragments
▁Armed
thlete
▁clubs
▁Quine
▁Quiney
▁dip
▁Rever
▁Reverend
▁deadlock
▁saloons
▁dominican
▁punished
▁yok
▁eyebrows
▁twisted
vest
▁exemption
▁interruption
▁Helion
▁trump
▁bump
▁thump
centive
mount
entucky
▁disabled
▁conversations
endix
▁tolerance
eredith
ithm
ithmetic
▁Meredith
ibles
▁mound
▁Hanover)
▁janitors
▁beck
tricate
▁hesitate
▁cultivated
▁favorites
▁Beck
▁sock
neck
oelect
▁86
▁room,
▁Yankees
▁singers
▁apple
▁vain
▁Graham
▁interc
▁intercourse
▁Nadine
inute
▁symbolize
▁peel
alraux
▁Malraux
lycer
▁glycer
cherty
ouv
▁happened.
jack
▁facil
▁generously
▁Suddenly
cet
▁Spring
stall
lema
tolema
tolemaic
iciencies
▁deficiencies
▁handic
▁handicapped
▁suspension
ographical
zer
▁flee
eavor
▁endeavor
▁ending
▁wing
▁chant
▁indignant
▁compost
▁injustice
38
▁1913
▁avoided
oline
▁gasoline
▁swarm
▁prolonged
▁wretched
▁Garth
▁rotation
▁rotating
▁competitors
▁realistically
▁Point
▁powell
bell
addell
embr
▁pigment
aires
▁concessionaires
▁patchen
▁agglutin
▁Vill
▁Village
illery
▁artillery
▁Very
▁it,
o,
▁Then,
▁Lo
▁case,
▁blankets
▁regulus
▁contemporaries
▁Benjamin
▁benjamin
▁presbyterian
▁Presbyterian
▁bangjensen
▁woven
▁purity
-help
▁self-help
▁nation's
ouk
▁roared
owell
elling
ella
▁passionate
▁entre
▁entrepr
▁entreprene
▁persistence
▁elbows
etary
▁monetary
egaton
▁dated
▁(R
▁usefulness
▁adding
▁Police
▁equivalents
▁dignified
▁termination
▁7th
aef
aefer
▁somers
page
▁Memorial
▁Mel
▁Mexico
▁preceded
▁Chamber
▁individualism
valued
▁pillow
rice
▁Mother
▁Mobile
▁seas
▁$500
▁allev
▁busily
odes
▁alphab
▁teen-
-E
▁Prop
▁michael
▁Form
▁brace
▁carto
▁pelt
▁distinguishing
▁simms
▁C.
iento
▁risen
▁throbb
▁spirited
▁killer
▁subordinates
▁correctly
▁engr
▁witnesses
▁transfers
▁respondent
▁gates
▁gn
▁gul
▁strode
erior
▁inferior
▁warrior
▁cuts
lot
▁oddlot
▁depot
▁guys
▁oath
▁senators
▁plantation
▁Player
▁exub
▁exuber
▁Ambassad
▁cunning
▁occupational
▁occupants
▁glist
▁55
odging
▁Camp
▁slower
▁bullets
▁7070
▁hierarchy
▁Ro
▁Road
▁mens
▁58
verb
▁proverb
▁pointing
▁conting
▁opposing
▁discontinued
▁masses
▁attributes
▁unequ
▁protr
▁battles
▁congressmen
itan
▁denounced
▁stren
▁strenuous
▁Shu
▁trucks
unciation
▁Eight
▁dumb
▁precedent
▁unprepar
▁Raymond
▁raymond
▁rebut
ewish
▁frail
▁creates
▁creator
▁meter
ola
tenance
▁countenance
▁flatten
capable
▁Sav
▁Saxon
▁saxon
▁sed
▁suspected
▁zinc
▁zone
▁convertible
▁smelled
▁piled
▁clich
▁calculation
▁reflecting
▁westward
▁ellips
▁Bobby
▁lengths
▁handful
▁Burma
▁God's
▁Truman
▁adaptation
-middle
▁Presidential
anna
▁witt
▁incons
▁incon
▁recon
▁slashed
▁hoof
undown
▁ware
▁decorative
giving
▁curved
▁ili
uxili
took
▁metropolis
▁ultracentr
▁ultracentrif
▁winds
▁engaging
gone
▁undergone
▁commencing
▁pronounce
▁Home
enson
▁"th
▁"that
▁spiral
▁russias
▁glitter
▁terrace
▁Mission
▁Mo
▁Moore
▁moore
▁wellknown
▁crystals
▁resembles
▁resembled
▁exempl
▁disinterest
acklin
▁Back
placed
▁misplaced
▁swim
▁guides
▁shifts
▁milton
▁Francis
▁edythe
▁Myra
amble
dam
▁goddam
ica
▁Madden
shot
▁mobility
▁Morr
▁Morris
▁Mil
alia
▁Thirty
▁buffer
▁municipalities
▁jeep
▁coupling
▁Far
▁alveolar
degreesc
cus
cathode
▁photocathode
▁photochemical
▁closest
▁vest
▁dock
▁postpone
roduc
▁Letch
▁bellow
▁reproduction
ilet
ttle
▁competing
▁1924
ouvanna
▁liberals
▁cents
▁belongs
▁nights
▁etc..
▁sixteenth
▁scal
▁prayers
▁calc
▁calcium
▁calif
▁induction
▁odd-l
▁odd-lot
▁automot
▁automotive
olitan
olving
▁prescribed
ocolate
▁chocolate
ofore
etofore
▁balloon
▁soloist
▁Having
▁neph
▁nephew
▁man,
▁manhattan
▁swamp
eel
▁Wheel
uxiliary
▁philosopher
▁prosperous
▁Progress
▁alternately
▁procedural
▁chairmen
▁orderly
▁patriotic
▁connois
▁home.
▁Farm
agh
▁pint
▁horizontal
aghty
▁allotments
▁ontological
atical
▁grammatical
beat
▁tomm
▁tomato
▁militia
▁grows
▁homogeneous
▁gripped
▁grill
▁arranging
▁hopeful
32
▁Andrei
▁authoritarian
▁Trujillo
▁questioned
▁Seld
▁loath
▁pac
exp
expensive
▁vacations
▁favored
▁paradig
▁doubted
▁Center
▁harder
lay
▁differs
▁burma
▁ruins
▁sincerity
EAE
▁shallow
ubert
▁Assembly
▁merchandising
▁fancy
▁fighter
▁plato
▁platoon
▁Light
▁kitti
incinnati
orthy
ivanna
▁schnabel
▁Schnabel
uation
▁conservation
▁immature
▁unimportant
▁evoked
▁deserves
iscuit
bound
ieth
udie
rox
▁baptist
▁enforc
▁ensure
▁dice
▁residue
▁distrust
▁distract
▁acquaintance
▁Take
ugment
▁advancement
▁preoccupation
▁apolog
▁meltzer
▁unbrok
interrupted
▁Shore
▁erotic
ided
▁coincided
.M.
▁devise
▁constitutes
elier
▁prevailing
actical
▁addressed
▁consulted
▁thirties
▁intrins
▁brighter
▁lighter
▁securities
▁inch
▁50%
▁interlock
▁Emper
▁contributing
iscovery
tolemy
▁gland
▁hunch
▁Greece
▁Parliament
▁contours
▁ped
▁plywood
▁micrometeorite
▁sorrow
athedr
▁cathedr
▁contrace
▁discrepancies
▁Imp
▁conspicuous
ptuous
▁Lizzie
▁diaphragm
▁conclusively
▁handicap
▁injured
▁sword
▁satellites
arges
▁discharges
▁privileges
▁cleveland
ifle
▁Serge
▁galley
iances
▁appliances
▁vernon
▁landing
▁99
▁49
▁villain
▁identifies
▁invite
▁rendezv
▁graz
▁fortress
▁engross
▁Massachusetts
▁paced
can
▁Near
anda
▁amusement
iodot
▁salaries
▁salami
▁tackle
▁warriors
▁counteract
▁architectural
▁declining
affold
▁scaffold
▁slot
▁Op
pelier
▁fingerprint
▁rescued
▁subdued
▁irregularities
▁blaz
▁cove
▁utmost
rmost
udsons
▁hudsons
▁protrud
▁heroes
▁sites
oric
renic
▁olive
▁gait
▁multiplicity
rome
egan
▁deegan
▁deaf
▁forego
▁nineteenthcentury
▁theatre
▁borders
▁borden
▁Buck
▁Berger
ocket
▁monuments
▁Constant
▁enduring
▁lest
arted
▁1861
▁bewild
▁Now,
-state
▁desolate
▁fascination
▁pinpoint
▁persuas
▁accessories
▁1/
▁duly
▁bankruptcy
uggage
▁luggage
▁interfaith
▁Decl
▁Declar
rotic
▁neurotic
-two
▁himself,
▁entity
▁Borden
andy
▁diversion
▁mahayana
▁Dean
▁clues
▁statues
AM
▁Make
▁intake
▁rebuff
▁slick
marine
ubmarine
▁antisubmarine
▁fifties
▁xr
▁correction
▁somersault
▁Got
▁populations
▁schedules
-level
▁pric
▁traveler
negie
▁secrecy
▁indo
DC
▁boxcar
▁novels
product
ps
psam
▁piepsam
▁papas
▁buffet
▁stunn
▁surgeon
▁brig
▁clamber
▁managerial
▁vicinity
▁Mountain
▁Main
▁lurk
▁followers
mile
cession
▁doses
makers
▁narc
▁Ref
▁Rourke
ormal
▁Standard
▁Nassau
▁nassau
▁agony
-D
▁scoop
connected
▁Thank
▁Build
▁pamela
▁pa
▁pad
▁geneva
▁biwa
▁beliefs
▁Prairie
▁underneath
▁dictates
▁fuck
▁Chair
▁Chairman
man's
▁endow
trow
astrow
▁heavens
▁1933
▁housew
▁houses,
bee
▁Room
acob
▁scenic
▁rodd
▁terrestrial
▁newcom
▁cruc
▁librarians
▁sensational
▁aunt
▁titled
▁antithyroid
▁arguing
ellowship
eur
▁comparisons
illac
▁unrec
▁passive
▁sympathize
▁Steinberg
enberg
▁steinberg
61
▁declare
▁beaten
▁120
▁boycott
▁humm
-Western
▁ske
▁skelet
▁wrinkles
▁manners
▁enjoying
ingham
irmingham
▁Maude
▁antip
▁wartime
▁Means
▁scrutin
▁inflection
ollection
▁recollection
▁fundamentally
▁bitterly
▁displayed
▁displays
▁Boy
▁therapist
▁Planning
oelectric
olese
▁quote
▁initially
000000
▁subtract
ism,
quarters
colored
▁landmark
▁sustained
▁accompaniment
▁souls
▁interlob
▁interlobular
▁farmhouse
▁lime
essert
▁dessert
ibet
▁anguish
children
▁grandchildren
icken
▁oxen
▁proven
▁drunken
agen
▁Handley
▁tart
▁maude
▁mexico
▁lizzie
▁practicing
▁certific
▁cobb
▁anyhow
▁cady
▁Cady
▁trifle
▁pulp
▁mother's
▁Pete
outheastern
▁manual
▁Tommy
▁tommy
▁reconc
▁designer
▁discon
shore
▁Congolese
▁unto
▁cadillac
esirable
▁undesirable
▁erupted
▁unreason
▁Cor
▁bog
▁greece
▁Ow
unted
▁grunted
▁grap
▁bour
▁feminine
▁throwing
▁bugg
▁braz
▁sprung
▁lessons
▁bug
▁dill
▁dc
▁Conc
acles
▁obstacles
▁improvis
▁"We
▁pollen
▁pollution
▁presents
interpre
▁misinterpre
▁outline
▁differed
▁knit
opular
▁schools,
▁parameters
▁idyll
▁catholics
ilian
▁conceptions
▁totalitarian
▁xray
▁stretching
aring
▁propagation
▁Lalaurie
▁temperament
▁vitally
▁killing
▁posts
▁physics
▁Katang
▁recreational
▁bacteria
-stage
▁megat
▁megatons
▁stole
▁ordinance
▁benefact
▁benevol
▁grease
▁Katie
▁Free
▁manipulation
▁manipulate
▁arab
▁pall
▁hesitation
▁sanitation
▁hoop
▁fluids
▁identifiable
▁howard
▁Yalta
▁yalta
▁deterministic
▁dugout
▁witches
▁B.C.
▁convicted
▁Arch
▁propulsion
▁Men
▁Mass
▁harass
assion
▁disclosed
▁anthrop
▁Claude
▁fats
emics
▁morphophonemics
▁flashed
▁lighted
▁trevely
▁treach
▁pulse
▁aged
▁admiration
▁thermometers
▁Minn
▁Ma
▁lin
▁tablespoon
▁histories
ft
fold
▁tactical
▁foams
▁victims
▁sau
▁carroll
74
▁throttle
▁outraged
▁ranks
▁disciples
▁alban
▁perilous
ousness
▁affiliated
▁knives
▁Power
▁Empire
▁stool
▁psychoanalysis
▁mouse
▁Cuban
iroshima
phosph
osphorus
▁lalaurie
▁Seventh
▁bruised
▁seep
▁Case
▁chase
activity
▁maker
▁others.
▁inconven
idges
▁proves
awaiian
▁Others
▁laz
▁glaz
idency
▁intimid
▁iliad
emia
▁logically
▁parameter
▁maggie
▁Marshal
▁immediacy
▁rendezvous
▁slapped
iature
▁miniature
▁Jon
▁compassion
aggie
▁Maggie
ieves
iepsam
ieving
▁excer
▁excerpt
erated
educated
▁collaborated
▁collaboration
▁sensation
▁lacked
3)
▁(3)
▁pseudo
ebread
▁Alread
▁cromwell
▁Cromwell
▁recourse
▁hip
▁katie
▁expedient
▁provoked
gust
▁disgust
▁Minister
▁kr
▁restore
▁packing
▁mg/
anthrop
▁philanthrop
-surface
▁szold
▁Szold
▁needed.
▁ire
▁aggregate
▁coordinate
▁skeptical
▁burdens
▁delph
▁emerging
▁grove
▁offset
,500
▁Mahayana
▁vulgar
▁tablespoons
chair
▁groom
upiter
▁Remember
▁squall
▁freely
▁anglican
▁Anglican
▁digest
▁digging
ture
▁sculpture
▁Teach
▁distal
▁shelves
▁garbage
▁congenial
▁chewing
moil
▁turmoil
▁Greene
▁embassy
▁analogy
▁unnatural
▁ventil
▁deliberations
▁collapsed
34
onnor
ylkill
ylan
▁earnestly
▁74
▁repud
▁packaging
▁distinctly
▁unmarried
▁words.
▁crafts
▁Joan
▁Picasso
▁(about
▁narrator
▁narrower
▁proteins
▁combining
▁proportionate
bishop
▁miracles
▁England,
ifty
▁negotiation
▁rag
▁thief
▁embarrassment
▁laundry
▁redcoat
▁restoration
▁restorative
▁exaggerate
▁magnificently
ahn
▁ga
▁gaiety
▁nov
-looking
▁Sur
▁pushing
▁leaning
▁fake
▁ferv
▁fel
▁pearl
▁uncommon
▁selfd
▁shores
rophores
▁repeal
▁prowestern
▁leav
oque
▁baroque
▁barco
avern
▁Nov
▁hunger
▁uneas
▁uneven
▁Record
▁Recently
▁Determ
▁Determine
▁cyclist
▁enclosure
▁discard
uard
▁(Sept
▁tin
▁rides
▁whipped
▁eclips
▁cath
▁hands.
▁ballroom
▁floors
▁tips
▁grokk
▁alk
▁alkal
▁Stal
▁Stalin
▁shrill
▁Arlene
▁griev
imburse
▁reimburse
▁penetrated
▁cortex
allic
▁metallic
▁unstable
avan
▁brav
▁bravado
▁brist
istent
▁smoothed
▁gospel
▁quirt
▁harness
ules
ullet
▁thirtyfive
▁lately
▁pilgrimage
▁duke
▁"You
▁equations
ations,
▁interrelations
▁taut
▁conjugate
▁unadjusted
▁lowered
▁104
lington
▁Festival
▁safeg
▁safeguard
▁denver
lain
▁Plain
▁crops
▁2:0
▁2:30
90
▁facade
▁attendance
▁delighted
▁(ex
▁(exclud
uylkill
▁States.
▁1914
urp
urpose
▁courty
▁Wr
▁gamb
▁semantic
▁indeb
▁indebted
▁indecent
▁bolted
▁emancipation
▁Word
▁knuckles
▁ecstasy
▁Owen
▁masculine
▁accepting
-spe
▁chauffeur
▁nineteenth-century
▁synd
▁syndic
▁Stevie
▁Stuart
▁jub
▁bald
den
▁scrub
yrate
▁alumni
▁teamsters
▁photographic
rais
▁Adjust
▁designs
▁weighed
nament
man,
clerk
auclerk
▁Advis
▁deciding
▁decides
▁ideally
▁Pierre
▁pierre
▁instituted
▁enters
▁AI
▁thoughtfully
▁uran
▁uranium
▁corros
rosse
▁radius
▁jokes
▁18th
▁19th
thood
▁garth
▁steal
▁York,
▁relied
entine
▁quine
▁quiney
▁glancing
▁supposedly
▁consequent
▁profile
atharine
son,
▁joining
▁Ambassador
▁impractical
▁Pohl
▁paragraphs
▁applicant
▁resultant
▁exhausted
▁elevated
▁Trans
▁splin
▁cooperating
▁fertiliz
▁arlene
▁ost
▁Horn
▁History
▁one's
lemish
▁reassuring
ourning
▁mourning
▁Love
▁glove
▁glendora
udged
▁surged
▁Timothy
▁sponsorship
▁treasurer
▁rider
▁terrifying
box
▁scent
-owned
▁amplitude
▁amplifier
▁analyses
▁impulses
▁compilation
▁induced
▁dared
▁defenses
▁madden
▁embassies
▁magnetism
▁gracefully
▁spherical
▁beckon
▁foremost
▁habits
▁whirling
▁huddled
▁nuts
▁suburbs
▁drinks
▁shadows
▁meanings
▁Express
▁utilities
▁Claim
▁knelt
▁construed
agued
▁wholesale
▁Agricult
▁novelties
▁viewed
lements
▁elong
▁loving
▁incurred
▁slice
▁bailiff
▁1:
ota
▁finishing
eltzer
▁Too
▁pohl
▁institutional
▁broadening
▁terraces
▁terrified
▁beset
real
▁cracked
▁kicked
▁staggered
▁discriminating
aternal
cos
cest
▁ancest
▁ancestor
osium
▁symposium
▁sympathet
▁coronary
▁wealthy
partisan
▁parliamentary
▁1859
▁expects
▁williams
▁ethic
▁rhythmic
filled
onghold
ounding
▁rim
▁spotlight
▁vex
▁premises
▁coerc
▁coin
otion
▁commotion
▁commenced
▁temptation
▁gigg
▁connoisse
▁rookie
▁psychother
▁proxim
▁Advisory
▁sensory
▁sealed
▁negotiating
▁inconsistent
urities
▁impurities
▁velocities
▁sweeping
▁impose
▁honorable
▁achieving
etically
▁hours.
▁potentially
▁Powell
▁Mos
▁fork
▁ascertain
▁cater
-making
▁(as
asper
▁exasper
▁exquisite
▁concentrates
▁padd
▁(H
▁Van
▁imports
-cl
▁esthetic
▁solving
▁cape
▁catastrophe
idity
▁humidity
acity
▁humil
▁coil
▁tid
ers'
''
''"
▁McF
▁proceeding
▁dose
▁germanium
▁susceptible
▁Abel
▁Us
▁Usually
▁notably
▁config
▁configur
▁premise
▁nadine
▁gyp
eramic
▁ceramic
▁uphold
hard
▁Burton
▁rake
▁later,
▁southward
▁Protestants
▁framed
ordon
▁threaten
▁eaten
ponsored
▁promotional
▁presidency
▁disorganiz
▁loot
▁wis
wall
▁"in
ieur
▁satir
▁milling
▁failing
▁adolesc
▁adolescents
cin
uxley
inley
▁McKinley
▁teen-ag
agan
▁strokes
▁flair
▁Northwest
▁Meas
▁peasant
▁tolerant
▁selecting
▁ditch
▁inherited
▁innov
▁H.
▁repuls
▁richmond
▁Could
▁presiding
▁room.
▁halt
▁Bishop
leveland
▁Cleveland
▁Pamela
▁Piepsam
-down
▁directions
ressed
▁Di
▁Dill
▁visibly
▁61
▁retiring
▁retre
▁retreated
▁17th
▁fifteenth
arth
arthy
▁versions
▁diarr
ulletin
▁radish
▁compression
committ
▁Delph
eliness
elle
xel
▁drexel
▁hurr
▁hurrican
▁insights
▁inspector
-colored
▁diverg
▁stevie
▁stuart
bright
llustr
▁stunning
▁drawings
▁Allied
▁Design
ensible
▁banner
▁usage
▁trustee
iere
▁jerked
▁compliance
▁evangelism
▁mysteries
s"
▁drought
▁skipped
▁baptized
▁homes.
▁butyrate
▁catcher
▁replaces
▁sunshine
rapy
llan
▁necessitate
▁facilitate
▁monotony
▁pony
▁quart
▁passions
houn
▁pronoun
▁quadric
▁owned
▁jeal
▁jealous
▁sensed
ospitable
▁actively
▁ireland
▁hillsboro
▁feudal
tral
str
▁hemorr
▁Torr
▁Torrio
▁B.
▁triumphantly
▁Hamrick
▁destroying
▁housed
haped
represent
▁booth
▁jewel
▁spontane
fiction
faced
-tr
▁unhappily
▁moderately
▁intimately
▁Porter
▁monitoring
keeping
▁discoveries
▁galaxies
▁nickel
▁sediment
▁pirates
▁alg
▁algae
icted
▁underdeveloped
▁praised
▁sins
antically
▁frantically
▁chronological
▁confine
▁confed
▁confederate
-filled
▁child's
▁striving
▁oysters
▁oyster
▁"not
▁cel
owski
▁mandatory
iates
▁burr
▁Library
▁Lublin
▁Export-Im
▁Export-Import
▁deploy
▁interviews
▁librarian
▁Been
emen
▁dissem
▁dissolve
▁pier
▁multi
itory
▁bellig
▁belligerent
pirited
▁edited
▁dictator
erator
▁distinctions
▁picasso
▁decad
▁Acad
▁Academ
▁Rh
hole
hous
▁warehous
▁uly
▁unduly
▁artificially
▁Juanita
▁crad
▁Columbia
▁ray
-ray
▁trees.
▁authorizations
▁screaming
▁orthodontist
▁Invest
▁Electric
orical
▁explode
▁Code
▁Coun
▁customs
▁bos
▁bosom
omatic
onduct
endell
▁heels
▁F.
▁freezing
▁bathing
▁controls
▁ap
▁prophec
▁rub
▁meteorites
aining
▁implication
▁obtainable
osa
ucosa
▁expended
▁Shaw
▁outward
▁selections
▁Charlotte
ormick
▁None
▁havana
▁embarrassing
▁impaired
gg
▁disbelief
▁superimposed
existent
▁endorse
▁snatched
▁smother
▁proceeds
▁abus
▁flourished
▁Southeast
ubby
rosby
▁frankly
security
▁presentday
▁merge
▁ambul
ulence
▁vowel
▁experimentation
▁aids
▁Freud
ges.
▁nostalg
givanna
cinol
▁guiding
▁humiliation
▁acknowledge
▁pennant
▁Wally
▁Gabriel
▁cuban
▁columbia
▁170
▁lash
▁sensibility
▁scraw
-plane
▁dressing
▁spencer
onder
▁maneuvers
▁abundant
▁junct
rect
▁contemptuous
▁Feather
▁Feb
▁exclusion
▁1890
▁1896
▁incub
on,
ona
onious
aac
▁Isaac
-step
▁rocks
▁ruthless
▁burgl
▁premiere
▁quill
▁quiver
▁crossroads
▁rows
▁pacif
▁prolif
▁Delphine
▁tanks
▁Lucille
▁sympathies
▁costume
▁yourselves
▁Concord
▁ultra
▁Sixties
▁year's
▁(C)
▁Marx
▁alleged
▁cleared
▁sighed
▁affixed
▁mailed
▁seced
▁juanita
▁genuinely
▁itself.
▁yelled
▁confirmed
ckinley
▁irritation
▁millenn
▁irradiated
▁disconcer
▁collecting
▁roam
▁demythologization
izational
▁civilizational
▁civilized
▁dissent
▁shocked
▁flowing
▁Similarly,
iodoty
iodotyrosine
▁country.
▁redcoats
▁instructed
▁instructor
rise
▁sunrise
anchise
▁sidewise
▁traditionally
▁(AP
▁dese
▁desegregated
▁1925
▁Twenty
▁evaluating
▁heating
▁investigating
▁(Af
instein
▁compulsion
▁awarded
▁guards
lymouth
▁tumors
▁gib
▁preferences
▁relates
▁examiner
▁mind.
▁lavish
▁ties
▁ration
▁Salem
-degrees-F
▁winchester
▁Fulton
▁fulton
▁focal
▁speculate
▁indecision
▁judged
▁judging
grily
▁1832
▁52
▁biscuit
itudes
▁budd
▁Agriculture
▁dusk
▁graduating
irov
crack
▁Jessica
▁swallowed
▁easiest
degree
ioles
elley
▁Shelley
▁Show
▁grams
ilt
▁revolt
▁tonal
▁penetrate
▁pessimistic
▁Yok
▁breakthrough
▁Claire
▁repression
▁Feathertop
▁screwed
▁sie
▁sore
▁prud
stiqlal
▁1960,
▁insolence
▁Measure
