<unk>
<s>
</s>
<noise>
<epsilon>
▁
t
h
e
a
n
d
o
f
i
w
s
y
u
r
b
m
v
l
c
p
k
g
j
'
q
x
z
▅
"
.
-
:
!
~
`
;
#
$
%
&
(
)
*
+
,
/
<
=
>
?
@
[
\
]
^
_
{
|
}
th
the
▁the
in
an
and
▁w
ing
▁h
ou
on
▁b
of
en
er
ed
▁and
▁of
or
▁f
▁wh
ch
re
▁s
▁a
▁m
▁th
is
▁c
▁in
▁p
▁t
▁to
ow
▁d
▁n
▁i
gh
▁sh
▁g
om
ar
at
▁that
▁for
▁no
as
▁was
ad
▁l
ll
ver
▁be
▁wi
▁with
▁it
you
▁you
ld
ould
ve
ther
▁his
▁had
▁he
es
▁her
ly
▁on
▁re
id
ion
im
▁him
ght
▁bu
ent
un
▁but
le
▁not
ight
it
ic
▁ha
▁have
ir
us
qu
al
ay
ac
▁is
▁this
▁an
▁r
▁e
▁ex
am
ain
ter
▁fr
▁from
ur
▁j
▁o
▁k
▁un
aid
▁said
▁she
▁ch
▁as
's
▁whi
▁which
▁con
▁com
all
up
▁up
oun
▁ou
▁st
ble
ation
ak
▁kn
▁will
▁all
▁v
▁or
own
ough
▁pr
▁go
▁would
▁by
ce
ound
os
▁qu
ard
▁what
▁when
ess
ous
very
od
our
ind
▁who
ought
▁li
ish
end
▁so
ok
▁my
▁wer
▁were
▁we
▁do
▁could
▁ne
▁should
▁wor
ook
ct
ome
▁some
▁su
▁se
▁very
▁tr
▁tim
ag
ong
ul
il
ill
▁br
ack
▁know
▁now
el
sel
self
▁at
▁y
▁us
▁man
▁mis
▁lik
ust
▁out
out
▁me
▁mor
for
▁look
ive
▁if
▁other
bout
▁tw
▁one
ven
▁en
▁dis
▁de
ame
▁good
▁every
▁been
ence
▁over
▁they
▁gr
ect
▁sp
pp
ck
ut
est
ast
't
op
ap
st
et
ant
ance
thing
able
der
▁under
▁their
▁about
▁any
▁gre
▁great
▁did
▁well
▁upon
way
ure
um
▁there
ff
ful
▁are
▁al
ol
ri
▁our
res
▁your
▁see
▁more
▁tak
▁never
▁old
▁befor
ace
▁hand
▁how
ity
itt
ittle
▁little
▁even
▁like
▁down
▁day
ave
ose
ost
ot
art
ist
ood
other
▁two
ather
aw
▁own
▁than
▁can
▁thought
ount
gain
▁again
ang
ig
▁just
▁ro
ove
fter
▁after
▁mister
ell
▁time
urn
▁such
ach
▁has
▁int
▁into
ward
▁only
▁long
▁himself
▁str
▁bo
▁back
▁pl
ink
▁think
▁bl
▁must
ick
▁ar
mp
▁exp
ally
ate
▁le
▁mad
▁mak
▁them
ment
▁before
▁per
ry
▁thr
▁through
▁cl
▁came
▁without
▁part
ious
irst
▁first
▁lif
▁say
▁made
one
▁way
on't
ull
uch
▁much
ress
▁turn
oll
▁wher
▁where
▁imp
▁may
▁nothing
ud
▁app
n't
ness
▁then
ab
are
ved
tain
▁comp
▁while
▁those
▁hous
▁am
▁miss
▁shall
▁don't
▁ob
▁place
ass
act
▁di
▁i'
▁cr
▁dr
ving
ge
age
oss
se
▁seem
ies
▁happ
igh
ie
ite
ide
ice
ep
▁rep
▁op
▁fe
▁room
▁let
▁pass
▁though
▁thing
▁thre
▁tell
▁still
▁pres
ber
▁come
ine
▁fl
ject
▁another
▁missus
aus
cc
ort
ock
▁most
▁ad
▁pre
▁mar
▁work
▁new
▁pro
▁night
▁sup
▁might
▁comm
▁something
ign
▁life
▁word
▁world
▁rem
▁diff
▁yet
▁get
air
ath
av
ail
au
aught
▁away
▁alway
▁house
ers
▁supp
ip
if
ond
▁end
▁ask
alk
▁make
▁count
▁love
▁last
▁gl
iz
▁off
ollow
ild
▁child
old
▁went
ause
▁acc
▁call
ction
ition
ear
▁year
▁appear
▁wom
▁enough
▁open
▁once
▁po
ople
eople
▁people
▁des
▁hun
▁wat
▁cour
▁cont
▁father
▁give
▁ent
ady
▁occ
ible
▁quite
▁ey
▁eyes
▁high
▁fri
▁friend
▁take
▁found
▁three
▁want
▁ind
ord
▁yes
ark
selve
▁woman
▁having
▁bec
▁because
▁face
▁tre
ire
▁right
▁home
ult
▁these
▁course
▁mother
▁saw
▁feel
▁sc
▁sm
▁follow
▁same
augh
ature
ise
ix
▁bre
▁lef
▁left
▁jo
▁heart
▁head
atter
▁against
▁sw
▁small
▁put
ince
ated
▁ever
▁arm
▁spe
▁speak
ue
gether
▁men
anc
▁ear
▁beg
▁among
▁each
▁white
ertain
▁certain
▁wr
▁present
▁kind
▁wind
▁mind
▁find
▁anything
▁many
leas
▁pleas
een
▁light
▁nor
▁eng
▁prop
ossible
▁country
ried
▁black
ning
▁morning
▁began
ian
ily
ty
oment
▁moment
▁kne
▁knew
▁few
turn
▁return
▁name
cl
less
▁ab
▁car
▁mean
▁brought
▁king
▁walk
▁talk
▁sub
▁always
cess
bl
lie
▁belie
▁sl
▁bet
▁better
▁betw
▁between
▁hal
▁half
pt
cept
▁dist
▁asked
▁order
▁gir
▁girl
ody
ary
▁cap
ither
▁here
▁door
▁oh
ffect
over
▁took
▁fell
▁char
▁near
▁suff
▁wish
▁god
▁leave
▁gave
▁youn
▁young
▁water
▁adv
▁hund
▁hundr
▁lady
▁whom
▁why
▁add
▁strang
em
man
ank
emp
orn
▁nex
▁att
▁themselve
▁myself
▁inter
▁matter
▁brother
▁believe
▁sec
▁disc
onder
▁wonder
ever
▁however
▁cons
▁conf
most
▁almost
▁live
ci
ied
iv
▁ev
▁herself
▁both
▁boy
uck
▁gu
▁hop
▁emp
▁remem
▁remember
▁hard
▁heard
▁second
lied
▁replied
▁poor
▁hor
▁poin
iver
▁seemed
▁underst
▁things
pect
amp
▁everything
ory
▁its
▁interest
ions
oke
▁del
▁done
▁hour
▁hum
ush
▁care
▁point
▁set
▁dark
▁war
▁el
▁rest
▁inst
▁far
▁wa
▁wait
eep
▁keep
▁looked
▁sure
▁dre
iness
▁captain
ully
fully
▁watch
▁remain
▁consid
▁side
aut
▁beaut
app
az
ular
▁four
▁opp
▁whose
ro
▁gen
▁gener
▁nature
land
les
dd
▁sudd
▁sudden
▁soon
▁stood
▁along
▁strong
ake
▁six
▁res
▁rec
▁sir
▁feet
▁next
▁known
▁quest
wer
swer
▁answer
▁years
osition
aster
ash
ason
▁reason
▁mon
▁became
▁become
▁draw
▁law
▁stre
▁fear
▁em
▁horse
▁above
▁eight
▁rather
▁ought
ief
oice
▁voice
▁necess
▁laugh
▁death
▁understand
fort
form
ently
▁got
aint
elt
▁felt
ase
ict
opp
▁i'll
▁i'm
'll
▁master
▁subject
▁object
▁round
▁ve
▁wood
▁cried
▁therefor
▁going
▁letter
▁reach
▁play
ense
▁pers
▁person
▁perh
▁perhap
▁else
▁full
▁hundred
▁twent
▁dire
ical
▁ref
▁reg
▁read
▁wif
▁being
▁whole
ield
▁question
▁true
▁seen
▁remark
▁doct
▁doctor
▁dou
▁doub
oud
▁sou
▁thou
▁thous
▁thousand
▁express
▁contin
▁consider
▁stand
ower
▁power
▁window
▁continu
▁told
▁gold
▁adm
mm
▁form
▁thir
▁thus
▁taken
gg
hind
▁behind
▁chang
erv
▁expect
▁hands
▁perhaps
fect
▁perfect
▁since
▁prince
▁doubt
▁unt
▁until
▁sil
▁sat
▁serv
▁twenty
▁hold
▁wife
▁lo
▁show
▁fact
row
urp
▁lord
▁can't
▁sun
▁till
▁gone
▁alone
▁gi
▁given
▁called
▁book
▁land
ool
▁too
ph
▁ph
▁cre
▁ground
▁close
▁quick
▁col
▁street
▁plac
ready
▁already
▁sever
▁break
▁cond
body
▁body
ile
ia
ib
▁turned
▁temp
umber
▁childr
▁children
ott
▁together
led
▁rel
▁ready
▁prin
▁around
▁fre
▁less
▁cann
▁cannot
▁respect
▁either
▁lay
uth
ual
▁earth
▁does
▁princess
▁bur
▁start
▁dep
▁dear
arge
▁large
▁succ
▁vis
ister
▁prom
▁cle
▁clear
▁general
▁best
▁women
▁whe
▁whether
▁inde
▁indeed
▁compan
leep
▁deep
▁kep
▁step
▁prof
▁happen
'd
de
▁ide
▁really
▁rece
▁differ
▁human
▁dream
▁number
▁const
▁fire
af
▁mount
▁account
▁accord
lish
▁english
▁fall
▁wall
▁short
ial
▁i've
▁truth
▁fellow
og
ations
▁words
▁toward
▁soul
▁ext
ton
ret
▁secret
▁cur
▁imm
▁summ
ouch
ale
▁suppose
wh
▁therefore
▁unc
▁als
▁also
▁themselves
oney
▁money
▁mo
▁min
▁minut
're
▁suddenly
▁joh
▁john
▁except
▁run
▁fam
▁family
▁carried
▁nat
▁natur
▁least
▁blood
▁looking
▁sk
▁charac
▁character
imp
▁simp
▁times
▁enter
▁didn't
▁mountain
▁trou
▁regard
▁success
▁five
▁gent
▁gentle
vent
lp
▁help
▁expl
▁act
▁neither
▁condition
▁diffic
▁difficult
▁direct
uct
uc
▁kept
▁sound
▁poss
▁possess
▁cross
▁pe
▁hope
▁effect
▁wild
▁gover
▁beauti
▁beautiful
▁fair
▁visit
▁govern
▁case
▁co
▁dress
▁excl
ances
▁contr
roach
ities
ubl
ublic
side
▁eighteen
▁sign
▁sleep
ately
ith
ich
▁rich
ived
▁received
▁disapp
▁disp
▁gentleman
▁won't
▁eas
▁ele
oot
▁foot
iet
▁quiet
gre
▁begin
ne
▁itself
ner
▁manner
utter
▁pret
▁pretty
▁art
enc
▁real
▁touch
▁several
▁jud
▁mil
▁daught
▁england
ens
ier
ience
ipp
▁mer
▁entire
▁spoke
ably
▁occas
▁comfort
▁har
▁par
▁bar
▁discover
▁ter
▁spir
▁spirit
▁hair
ific
ift
▁rock
▁es
▁kill
oken
eng
ength
▁different
▁evid
idd
ually
vel
▁yourself
▁state
quir
▁queen
▁bus
▁business
▁creature
▁direction
▁trouble
▁dead
▁def
▁lost
▁river
ub
hip
▁ship
jo
▁approach
ross
cross
▁dec
▁idea
▁blue
▁it's
▁pol
▁possible
▁road
oft
▁necessary
▁seven
ention
▁sent
▁soft
ek
ke
▁te
ore
▁surp
▁purp
▁surpr
▁purpose
▁rose
iew
▁view
▁cold
olut
atch
ates
▁command
▁intell
unt
▁sister
▁delight
▁neigh
▁need
▁soci
▁table
▁answered
ished
ison
▁prov
▁dev
▁equ
icular
▁particular
chool
▁terri
▁spr
▁week
▁lear
▁learn
▁smile
empt
▁attempt
▁mist
▁che
▁chief
▁sea
▁strange
▁decl
▁school
▁story
▁days
▁smil
day
▁attention
▁leg
ility
ative
▁court
▁lead
▁glad
▁hur
▁dur
▁during
osed
▁prison
▁pleasure
▁common
▁princ
▁princip
▁build
▁dang
▁prod
▁satis
▁satisf
ient
iff
uff
▁corn
▁ste
ude
ug
▁grand
▁carry
opped
ugg
▁list
▁listen
▁hon
▁feeling
itude
▁desc
▁desp
urch
▁church
▁cover
▁pap
▁eye
▁occasion
▁month
▁mus
▁exist
▁exc
▁import
▁sort
ting
▁coming
▁making
ling
▁bel
▁tear
▁big
▁living
▁lived
▁ang
▁sn
▁impossible
▁daughter
ans
▁trans
▁esc
▁escap
▁belong
▁bir
▁bird
▁hung
▁friends
aven
urther
▁further
▁cir
▁circ
▁circum
▁sugg
▁move
▁mag
outh
▁worth
▁enem
▁enjo
▁comple
resh
▁thirty
▁instant
▁mouth
▁ma
▁maj
ating
▁thank
though
▁although
▁bad
ised
ted
▁wide
▁guard
▁sur
▁wrong
▁sold
▁held
rib
▁arri
riage
▁free
▁servant
▁chr
▁christ
▁use
▁uncle
▁glass
aim
▁exclaim
▁utter
▁cause
▁son
▁gard
▁garden
▁ten
▁green
▁third
▁mark
▁accom
▁ver
▁ed
▁est
▁conver
cious
wn
▁town
▁clo
▁clothe
▁forg
▁slow
▁grow
▁neighb
▁whis
▁government
▁desire
▁phil
▁div
▁circumst
oc
▁conc
▁passed
▁dem
▁coll
▁tried
▁mod
▁explain
▁plain
▁drew
▁saf
▁silence
ah
▁struck
▁strength
've
▁public
▁chair
ffair
ledge
▁knowledge
▁obs
▁across
▁air
agg
▁suggest
br
band
usband
▁husband
par
▁prepar
▁accomp
ump
▁happy
▁happiness
▁meet
▁none
▁taking
▁z
▁drink
▁service
tern
▁sense
▁pie
▁inf
tim
▁sometim
▁sometimes
▁stud
▁hall
▁depart
▁fin
erve
▁inc
▁sight
▁bright
▁knight
▁getting
▁proper
▁peace
▁occup
ten
▁often
▁conduct
▁exper
▁beginning
▁profess
▁scar
▁scarce
▁hear
▁star
▁stay
▁stopped
▁quar
ford
▁result
ask
▁giving
▁ben
▁evening
▁heaven
▁suffer
ides
▁south
▁neck
▁length
▁loved
rup
▁cor
▁cut
▁lad
▁understood
▁city
▁running
ified
ifty
ung
▁conscious
▁pray
iously
▁certainly
ages
▁admir
▁pract
▁priv
▁prot
▁experience
ater
▁later
ents
▁er
▁danger
▁circumstances
▁returned
▁hast
▁past
▁cast
▁ho
▁demand
▁possib
▁grew
▁aw
▁trave
▁exact
▁exce
▁towards
▁piece
▁rob
itch
iss
ont
▁front
tle
attle
▁field
▁ill
ead
▁instead
head
▁dread
▁shad
▁shadow
▁whatever
▁chap
aith
▁faith
▁arrived
erved
▁observed
▁morrow
ender
ended
▁somewh
▁terrible
▁teach
oup
uthor
▁offic
icture
ney
▁stri
▁whisp
▁o'
▁sens
▁picture
▁broken
▁sevent
▁abs
ounc
avour
ments
▁disappear
aving
▁leaving
▁try
inner
▁dinner
▁easily
▁recog
▁mere
gree
▁cloud
▁fifty
▁prob
▁probably
▁societ
▁class
▁o'cl
▁grave
▁absolut
▁met
▁natural
▁hill
cul
lf
▁self
▁flo
▁flow
▁snow
▁others
▁squ
▁thy
▁thick
▁minutes
well
▁ac
▁accept
▁acqu
▁acquaint
igure
▁figure
▁ag
▁caught
▁fill
▁fine
itting
▁slight
ors
▁marg
▁margare
▁dog
ourney
▁journey
▁o'clock
▁chapter
mag
▁imag
mbl
te
▁complete
▁means
▁married
cially
▁bene
▁margaret
▁afterward
▁breath
▁beneath
▁low
▁crow
▁crowd
▁sitting
▁yell
▁win
▁winter
▁box
▁boat
▁esp
▁swe
▁sweet
oon
ized
ize
▁kiss
▁bank
▁opin
▁forget
▁bit
▁position
▁quarter
▁peter
▁laid
▁je
▁cry
raid
fraid
ract
▁sus
▁sy
▁symp
▁surprise
▁anim
▁animal
▁wit
▁hot
▁grace
▁mur
▁murder
▁occur
▁below
▁allow
▁chance
▁mill
uction
▁maid
▁ann
▁suffic
▁dri
▁infl
▁madame
▁vill
▁bott
▁sword
▁recogn
▁prec
asure
▁troubl
▁roll
▁excell
▁super
ffort
▁effort
▁eat
▁pat
▁opinion
ceived
▁indian
▁port
▁floor
▁moved
▁bring
▁sail
ron
▁fac
▁marriage
▁distance
▁concer
▁lip
▁according
▁miles
▁fool
▁fail
▁proce
▁obl
▁oblig
▁affect
ined
inct
lect
▁gather
▁fight
▁fright
▁fresh
▁caus
▁moon
▁shout
▁relig
▁silver
▁ass
▁vict
▁val
▁vir
▁presence
iately
▁dropped
▁bow
▁deter
▁determ
▁determined
▁ago
▁dut
▁strugg
▁stra
▁straight
▁continued
▁eag
▁reached
ov
▁arr
▁arrang
gr
▁describ
▁beauty
orrow
▁writt
itted
▁writ
▁brown
▁fast
▁write
▁refus
▁forward
▁makes
otion
olog
ifteen
teen
▁cal
▁camp
▁influ
bert
▁evil
▁conse
▁consequ
▁conv
▁concl
▁plan
▁address
▁threw
▁incre
▁attack
▁jack
ident
▁warm
men
▁gentlemen
irm
ired
ench
▁french
▁flowers
▁pleasant
▁twel
▁twelve
fortun
▁fish
▁honour
hood
▁fix
▁slowly
▁carriage
▁protect
▁satisfact
▁separ
▁produc
ically
▁finally
▁ret
▁requ
▁pull
▁pain
ike
▁longer
▁gaz
▁mention
ustom
▁ladies
▁heav
▁heavy
▁appearance
▁appeared
▁bill
▁born
▁bound
▁battle
▁cheek
▁nearly
asp
▁cent
▁arms
▁ran
▁prevent
▁afraid
▁becom
ope
▁tree
▁island
▁guess
▁board
ences
▁relie
▁trees
▁deal
▁early
ocket
▁pocket
▁impress
▁fort
▁fortun
int
under
▁commun
▁sit
bit
▁habit
▁ye
▁anne
▁anx
aken
▁written
▁slave
▁save
ches
ane
ote
▁wrote
ade
▁change
▁i'd
▁stream
▁contain
▁obtain
▁pay
▁declar
▁var
▁bear
▁train
▁inv
▁rev
▁stone
▁dest
▁yellow
▁enjoy
▁followed
▁sad
▁saint
alth
▁north
▁wound
▁believed
▁able
▁opport
▁opportun
▁food
▁enc
▁surprised
▁comes
ured
ivid
▁individ
▁individual
▁usual
▁whisper
▁quickly
▁jew
▁destro
▁doll
▁bell
iddle
ons
▁colon
▁pecul
▁wonderful
ination
▁conce
▁joy
▁intellig
▁intellect
▁hardly
▁silent
noon
▁afternoon
ann
▁tone
▁fanc
▁forgott
▁susp
▁stor
▁please
▁mem
▁member
▁liber
▁expression
▁famil
▁frequ
▁closed
▁outside
▁beside
▁repres
▁immed
▁immediately
eless
▁finished
▁bitter
▁music
▁yard
▁decid
▁trembl
▁author
▁send
▁middle
▁ser
iest
▁exclaimed
▁states
▁evidently
▁easy
▁safe
▁society
ey
arch
▁search
▁sing
▁single
▁simple
val
▁term
▁terr
▁you're
▁interrup
▁bed
▁happened
▁entered
▁det
▁extre
▁extrem
▁pur
▁pal
▁palace
▁various
ablish
▁establish
▁lab
▁bab
▁accomplish
▁press
▁tender
▁fun
▁throw
▁neg
▁bread
▁sal
ality
ution
▁broke
off
▁added
▁used
▁trust
▁influence
▁existence
▁espe
▁especially
▁shar
▁sharp
athe
▁ra
▁raised
▁promised
▁promise
ury
▁company
▁anxious
ism
▁priest
▁stair
▁seventeen
▁sufficient
▁line
▁courage
▁village
▁paper
ondon
▁london
yond
▁beyond
alley
▁ball
▁generally
inary
▁within
arrow
hold
▁spring
▁blow
▁blind
▁offer
oy
unk
▁assist
▁mine
▁vi
▁viol
ium
▁represent
▁colour
inc
ript
zz
▁narrow
▁valley
▁attract
▁satisfied
▁support
aterial
▁opened
red
ires
▁important
▁fifteen
▁couldn't
▁scarcely
▁compl
▁spoken
▁bottom
▁marry
▁mary
ited
▁ourselve
▁season
▁christian
▁sol
▁memory
▁elect
▁colonel
▁polit
velop
▁develop
▁pick
iar
▁peculiar
▁familiar
▁minute
ere
where
▁eager
▁worse
sembl
▁mass
▁grass
ute
▁darkness
avor
iment
▁crim
▁gall
ened
▁frightened
▁red
▁rush
▁ris
▁lie
▁hurried
ines
ames
▁calm
▁travell
oth
▁corner
▁firm
▁says
▁prev
▁collect
▁reflect
loy
▁employ
▁march
▁charm
▁distinct
▁situ
▁shook
▁gh
▁despair
▁office
▁walked
▁saying
▁perform
▁repe
▁repeated
▁gun
▁standing
▁ideas
▁claim
▁party
▁carefully
quired
▁conn
▁connect
▁proud
▁hours
ins
▁convers
▁conversation
▁judge
▁judg
▁affair
▁questions
▁furn
▁wick
▁bless
▁seems
eness
▁mess
▁confess
▁wanted
▁sorrow
▁spot
▁faint
▁favour
▁educ
▁knock
▁regular
ency
▁fash
▁fashion
▁property
▁farm
▁increas
ert
▁observ
▁slipp
▁constant
▁poet
▁golden
idden
▁entirely
▁stop
ham
amber
▁chamber
ament
▁main
▁earn
▁subst
▁proceed
▁nine
▁group
▁dollar
▁opportunity
▁rap
▁rapid
▁stick
▁lifted
▁inform
▁late
▁minister
while
ald
wise
▁simply
▁rid
▁duty
▁lower
▁loud
ission
usion
ius
olution
angu
▁langu
uit
▁fruit
▁ru
uce
▁intr
▁introd
▁instr
▁private
▁favor
▁serious
▁neighbour
▁angry
▁sigh
▁swift
▁supposed
▁receive
ra
▁extra
▁post
▁lips
▁stret
▁stretch
▁virt
▁aunt
▁handsome
▁die
ster
▁myster
▁suspect
▁motion
▁naturally
▁jane
▁jump
▁honor
▁honest
▁earnest
▁tears
▁instinct
▁oppos
▁opposite
sides
▁besides
▁advanc
▁sympath
uke
▁breakf
▁breakfast
▁somewhat
▁hat
ones
▁degree
▁latter
▁language
▁wise
▁ow
▁comb
iers
▁soldiers
▁soldier
▁forgotten
▁scen
▁president
▁harm
▁attend
▁piec
▁entertain
▁report
idence
ault
▁tall
▁path
▁pen
▁color
ony
▁confidence
▁cat
eth
▁police
come
uous
▁spite
▁wheel
▁unless
▁surr
▁surround
▁surf
▁surface
▁everybody
▁storm
amm
▁major
ounter
▁empty
▁ess
▁places
▁placed
▁game
▁merely
▁enemy
by
awn
▁magn
▁houses
light
▁spl
▁splend
▁suc
▁succe
▁roof
▁pale
▁sac
▁sick
▁burn
▁burst
▁appar
▁sacri
dom
▁kingdom
▁rom
oom
▁gloom
to
together
▁altogether
▁plant
▁absolute
ship
▁value
aph
▁excite
▁majest
▁sim
▁clim
ices
▁sand
▁oper
▁shap
ior
▁clean
▁concern
▁moving
▁filled
▁exam
▁exh
▁cheer
▁ce
▁social
cial
▁special
cient
▁ancient
▁spec
▁custom
▁mistress
gress
oop
oph
▁dar
▁brave
▁fortune
ric
▁suit
uel
▁cruel
▁measure
▁treasure
osoph
▁philosoph
let
tory
▁history
ilt
▁built
▁emb
▁delic
▁obey
▁key
▁scr
▁ceas
▁process
▁progress
▁hang
▁stepp
ries
▁miser
▁deliver
▁univer
▁phy
▁engag
▁begg
▁thrown
▁bold
▁occurred
▁army
ley
▁castle
▁fle
▁perfectly
▁advant
▁advantage
▁amer
▁americ
▁van
▁vol
▁nobody
▁shot
▁shut
uture
▁future
▁sky
▁west
▁flower
wood
iumph
▁summer
▁wouldn't
▁that's
▁exactly
▁seat
▁host
▁arch
▁sixteen
▁double
▁following
▁eld
▁escape
▁square
▁recover
▁accompan
▁climb
▁edge
▁catch
▁iron
▁wave
▁situation
▁gain
▁passion
▁yield
▁shore
▁extraord
▁murm
▁incl
▁drop
▁flash
▁liberty
▁temper
▁paid
▁frank
aft
▁extraordinary
▁sacrif
▁mid
▁ap
▁apart
▁tired
▁cab
▁cook
▁civ
▁civil
▁cup
▁cost
▁syst
▁system
▁american
▁wand
▁prove
▁lean
▁affection
▁arrival
▁constit
▁pros
dinary
▁breast
▁hurry
▁hurt
umb
umbl
▁song
▁examp
anch
▁gar
▁ge
▁geor
▁george
▁charge
▁lim
▁feature
▁clothes
▁force
▁seek
▁triumph
▁destroy
▁cott
▁difference
▁weak
akes
▁phys
▁hen
▁henry
▁den
▁superior
rew
read
▁spread
▁space
▁companion
▁companions
▁teeth
▁tea
▁spee
▁speech
ode
▁smoke
ven't
▁haven't
▁extreme
▁kitch
ax
olved
aved
oved
▁proved
▁sixty
▁doesn't
orry
▁sorry
▁wander
iety
▁rain
str
▁action
▁regret
▁pieces
▁und
▁seized
▁detail
▁tail
▁tong
▁tongue
ague
▁depend
▁resp
▁resolved
▁rub
▁proof
▁pop
▁pun
▁isn't
▁contrary
ables
arg
▁fat
▁clever
▁perm
▁curious
▁pref
▁material
▁meant
▁suspic
▁kitchen
use
▁waiting
▁pound
▁duke
▁nice
urb
▁disturb
▁accident
▁content
▁scene
▁imagination
▁imagine
▁egg
▁thor
▁thorough
▁you'll
▁bull
▁advent
▁fault
▁coat
▁treat
▁drawn
▁ordinary
▁luck
▁bro
▁broad
▁sides
▁serve
▁decided
▁eleven
▁twice
▁dick
▁simil
▁crown
▁grown
▁similar
arm
▁alarm
imm
▁threat
▁agree
olly
▁forth
▁fo
ob
▁lou
▁edward
▁somewhere
▁bush
▁gift
ork
▁york
▁appre
rel
▁tast
▁instance
▁flew
▁disappo
▁sav
▁sch
retch
▁wretch
▁labor
▁succeed
▁mir
▁stir
▁east
▁sunday
ues
▁excited
▁laughed
▁evidence
▁arg
▁splendid
▁accustom
▁protest
aff
▁occupied
▁there's
▁necessity
▁authority
▁mix
▁remained
▁sett
▁settled
▁former
▁fallen
▁contempt
chief
▁luc
▁lock
▁ghost
▁popular
▁merc
▁rough
ette
▁eliz
arily
▁cand
▁coup
▁cool
▁angel
▁adventure
▁usually
▁apparently
▁sprang
▁building
▁talking
▁magnific
▁movement
▁thinking
ending
▁started
▁turning
▁excuse
iction
▁glance
▁excitement
▁leap
▁meanwhile
itive
idge
uge
▁age
▁punish
▁rode
▁hors
▁horses
▁horr
ians
▁months
▁earl
ously
▁rang
▁events
erman
▁german
▁gate
▁native
▁detect
▁ven
▁desired
▁covered
inted
▁interrupted
▁paus
▁pack
▁paint
▁putting
▁perceived
▁sake
▁united
▁conceal
fford
▁witness
▁france
▁rejo
▁removed
▁record
▁shop
▁shoot
▁otherwise
▁shr
iod
▁period
▁anxiety
uss
▁discuss
▁trying
▁study
▁render
theless
▁nevertheless
▁fancy
▁baby
yp
▁typ
▁pride
▁pow
▁passage
▁spect
▁amount
▁ly
▁lying
▁thunder
▁guest
▁equal
▁equally
▁assum
▁lover
▁vain
dle
▁driven
key
▁strike
▁nin
▁ninet
▁nineteen
inite
igin
▁origin
▁d'
▁d'art
▁charles
▁mamm
▁reply
▁friendship
▁frequently
iently
▁precious
▁design
eign
ollect
▁recollect
urg
urope
▁europe
ery
acy
▁roy
▁royal
▁difficulty
ify
▁franc
▁glanc
▁milk
▁push
▁waters
▁stranger
▁d'artag
▁importance
▁forty
▁drove
▁intended
▁political
▁constitution
▁larg
ception
▁died
▁actually
▁joined
▁noble
▁smith
▁dry
▁hunting
▁thorn
▁stones
▁infinite
atic
terday
▁yesterday
▁excellent
▁asleep
olk
▁folk
▁cottage
▁required
▁intention
▁birth
▁moder
▁powers
▁maintain
▁prospect
▁troop
▁you've
▁physical
▁jul
▁danc
thod
▁method
▁loss
▁wealth
▁health
▁cow
▁advice
▁wear
▁keen
▁news
▁afterwards
▁aware
lex
ex
▁fox
▁contemp
▁farther
thern
onscious
▁unconscious
▁father's
▁virtue
▁wil
like
▁patient
▁huge
▁fier
▁fierce
▁purs
▁century
▁papa
▁papers
▁bun
▁buried
▁scre
▁check
▁example
▁changed
▁wine
▁devil
▁feather
▁weather
▁coff
▁cas
▁nur
▁faces
▁girls
▁encounter
▁unfortun
▁misfortun
▁sle
▁slept
▁satisfaction
▁possession
▁dreadful
▁silk
son
ants
raph
ograph
▁mistake
▁names
▁james
▁reck
▁rever
▁ut
▁enemies
ny
noc
gn
gnor
▁virg
erg
▁energ
sh
▁boys
▁we'll
▁entr
▁persu
▁project
▁alive
▁convinc
▁boil
▁learned
ided
▁killed
gan
▁urg
▁coast
▁immense
▁pleased
▁bod
▁bodies
oat
▁throat
▁drive
▁youth
ument
▁encour
▁vent
▁vast
▁southern
▁compar
sie
▁monsie
▁monsieur
▁elsie
▁taste
▁knif
itation
▁sufficiently
▁nation
igg
aces
▁takes
▁attach
▁paris
itary
▁military
▁lot
▁boot
▁la
▁lines
▁lose
▁concerning
▁burning
▁introduc
▁lake
▁presently
▁justice
▁fond
▁drunk
▁quietly
▁consist
▁utmost
▁speaking
▁expected
▁hidden
▁hide
▁hither
unch
▁travel
▁err
▁impr
▁stock
▁brain
▁grief
▁brief
▁ant
▁proport
▁ignor
irt
▁begun
▁pier
▁unh
▁unhapp
▁hath
▁emotion
▁elizab
▁elizabeth
▁wid
und
▁fit
arest
▁bob
be
▁seeing
▁prefer
▁religion
▁grad
▁gradually
▁gray
▁grant
▁race
▁prompt
father
▁grandfather
▁benef
▁dism
▁stup
▁drawing
▁visible
ocr
▁mach
▁man's
athed
aking
▁buck
▁tur
▁fur
▁fully
▁hole
▁terror
▁religious
asket
▁basket
▁task
aver
▁admitted
▁thin
▁skin
▁entrance
▁labour
▁observe
▁famous
▁cous
▁cousin
amond
▁diamond
oes
oses
osity
ancho
▁belief
iam
▁william
ik
iant
▁distant
▁distress
iosity
▁curiosity
ribut
agon
▁fixed
▁strik
ively
▁hyp
▁magic
▁communic
▁sell
▁officers
ares
ability
▁powder
▁discovered
uzz
▁doing
▁science
▁odd
▁hotel
▁america
▁message
att
▁capt
▁writing
▁foolish
▁anybody
▁declared
▁forest
▁russ
▁rail
▁descript
▁greatest
▁level
▁species
▁midst
▁ourselves
▁exhib
▁trib
▁provided
▁busy
▁showed
▁mort
▁intim
▁produce
▁ug
▁deck
▁lit
▁d'artagn
▁d'artagnan
▁unk
▁unkn
▁unknown
▁remind
▁patience
andon
▁abandon
▁parl
▁mart
▁mot
▁mysterious
gar
illiant
▁brilliant
▁relief
ibility
▁shame
▁desert
▁clos
▁amaz
▁murmured
▁education
▁organ
lection
▁reflection
▁dav
▁principle
▁sought
▁control
▁quarrel
▁personal
with
▁lamp
▁announc
▁allowed
▁consciousness
iving
▁forgive
▁motive
▁forgot
vest
▁books
▁choice
just
ugust
▁nurse
▁dwell
▁dust
▁dull
▁due
▁surely
▁club
rupt
▁card
▁shown
▁beast
▁argument
▁served
▁steps
▁moral
▁sacred
▁innoc
▁modern
▁perce
expect
▁lod
▁indiff
▁pot
▁pair
▁resist
istr
▁jun
▁beat
▁thrust
▁arth
▁arthur
▁mel
▁melancho
▁stuff
▁skill
▁nodd
▁fal
▁false
ital
▁capital
▁conqu
▁pet
▁noise
▁loc
▁indep
▁independ
▁notice
▁somebody
▁settle
▁everywhere
▁band
zen
▁dozen
▁relations
▁awful
▁appreci
▁shape
que
▁assured
▁inside
▁directly
in't
▁revolution
▁smok
ime
▁rule
▁cabin
▁tele
ining
▁shining
▁shock
▁hollow
▁thirteen
▁fourteen
▁evident
▁unto
io
▁dign
▁indign
▁dom
▁dim
▁dam
▁dare
▁bare
per
▁prosper
▁upper
▁perp
▁greater
▁unf
▁salt
▁information
▁seventy
▁bag
▁mistaken
▁smiled
▁smiling
ator
▁grat
▁spent
▁corres
how
▁request
▁nerv
▁dignity
▁passing
▁shoes
▁gently
▁grasp
▁corp
▁corre
▁correct
▁grey
▁greek
er's
▁dangerous
▁stupid
▁liter
▁hol
▁recall
▁glory
▁victory
▁couple
▁merch
▁sacrifice
▁practice
▁consci
oci
▁associ
▁consent
▁smo
▁smooth
▁conscience
▁neglect
▁unp
▁acquaintance
▁strain
▁majesty
iments
▁increase
▁recognized
▁intelligence
ves
▁wished
▁horror
▁pure
▁knees
▁indic
▁harry
▁hungry
▁delay
▁pursu
▁continue
lcome
▁welcome
▁cases
▁event
▁powerful
▁obliged
▁horri
▁horrible
▁genius
▁wol
▁possibly
▁cord
▁absence
▁fly
ival
▁rank
▁seated
▁seld
▁seldom
apped
ision
▁saved
▁smell
orth
worth
▁stories
rest
▁meeting
▁safet
▁ears
ouse
ole
vo
void
▁bridge
▁require
▁embr
▁rise
then
▁secure
ises
▁wis
▁wisdom
aged
▁principles
▁david
▁scream
▁nam
▁steam
▁loose
▁shoulders
ux
▁sex
▁singular
▁commission
▁dish
ows
▁parents
▁dece
ounce
▁permitted
▁fing
▁fingers
▁finger
▁condem
▁fever
▁match
▁flor
▁trem
▁depth
▁judgment
▁disappoint
▁arrest
▁fold
▁savage
▁dawn
▁indust
▁artic
▁worst
oices
▁voices
▁vague
▁conclusion
▁conclud
▁worship
▁beh
hab
▁ah
▁profound
▁awaken
▁advance
▁crack
▁laughing
▁stead
▁respons
▁poison
▁corresp
▁correspond
▁engage
▁wolf
▁robert
▁root
▁fourth
▁resembl
chang
▁exchang
▁exe
▁exec
▁exer
▁exerc
asc
ze
▁trade
ets
▁legs
▁risk
▁rising
▁arose
▁accompanied
▁moreover
▁horiz
▁blank
▁speed
▁etern
▁eff
▁innocent
▁hitherto
▁exercise
▁subm
▁oppress
▁instrument
▁substance
aughter
▁taught
▁thirst
▁interval
▁nervous
ensive
▁om
▁mat
▁reward
▁dressed
▁convent
itated
▁beloved
▁arrow
▁led
▁birds
isc
▁forc
▁trail
ulous
aul
▁paul
▁sole
▁solem
▁solemn
▁newsp
▁newspap
▁professor
▁neighbor
stair
▁walls
overy
▁discovery
▁hence
▁miserable
▁remarkable
▁considerable
habit
habitants
▁admit
▁retre
▁whispered
▁pursuit
▁retired
acious
▁mamma
▁sugar
▁sum
▁tom
▁fem
▁disappointed
▁merry
▁consequence
erence
▁officer
▁eg
▁disg
▁divine
▁divided
▁proportion
▁appo
▁appointed
▁size
▁holding
▁persist
▁privile
▁holy
▁instantly
uly
▁truly
ourn
▁pour
▁vig
▁hastily
▁dollars
▁delicate
▁supper
▁adam
▁learning
▁improve
▁constr
▁ir
▁sul
▁syl
▁sylv
▁sylvia
▁volum
▁confusion
▁erect
▁resum
▁appreh
▁emper
▁emperor
▁impression
▁env
▁relative
▁walking
ings
▁thoughts
▁type
▁arrange
▁track
▁lack
▁counc
▁council
▁deb
road
uments
▁virgin
▁feast
▁alice
▁calcul
▁roar
arr
▁embarr
▁whenever
ising
▁governor
▁buy
ancy
▁bas
▁intense
els
ssel
▁vessel
▁flat
▁higher
▁aloud
▁log
▁load
▁loving
▁aston
▁astonish
▁astonished
uished
ett
▁proposed
▁persons
▁letters
▁attitude
room
ges
enced
▁republic
▁reproach
▁interp
▁top
▁embarrass
▁wore
▁worn
night
▁midnight
▁flight
▁experi
▁negro
▁gratitude
▁execution
omp
▁wasn't
▁peas
ars
▁cloth
▁counten
▁countenance
den
▁sensible
▁useful
▁careful
▁faithful
▁explan
▁curtain
▁absolutely
▁includ
▁inclined
▁unexpect
▁dun
▁tor
order
▁precise
atherine
ned
▁reckon
▁coach
▁schem
▁dragg
abel
▁amuse
▁complex
▁throughout
▁considered
▁throne
▁consult
▁laughter
▁lives
▁knife
▁worthy
yr
▁ep
▁unpleas
field
▁particularly
▁oak
▁oce
▁ocean
▁plent
▁plenty
▁foreign
vereign
▁adver
▁enth
▁enthus
▁enthusi
▁animals
▁messeng
▁previous
▁prevail
▁addition
▁share
▁intellectual
▁engaged
ounsel
crib
▁rul
▁capable
ged
▁stern
▁fate
▁impat
▁philip
uish
ishop
▁bishop
▁supre
stone
oul
▁price
▁valu
▁engine
▁diver
▁weight
aily
▁daily
▁caused
▁offered
▁nearest
dy
▁somehow
cript
istic
ification
▁prepared
▁bottle
itiz
▁citiz
ization
▁caut
▁wings
▁alas
▁king's
▁cliff
▁stiff
▁cart
▁contract
▁hid
▁northern
▁scatter
▁liked
▁severe
▁female
▁freed
▁freedom
▁experienced
▁comfortable
lic
ler
iot
▁cave
▁named
▁adop
▁waist
▁mutter
▁profession
▁glow
▁forced
▁spark
▁rare
▁trad
▁consequently
▁mile
▁mult
▁cult
▁cultiv
▁med
▁mal
▁stairs
▁variety
▁services
▁rapidly
▁resolution
▁nose
kins
mother
▁grandmother
lexand
stand
▁station
▁flour
▁cho
▁choose
vey
▁reve
▁obv
▁obst
▁lux
▁lunch
▁max
▁sentiment
▁setting
ulation
▁wash
▁test
▁whir
▁treated
▁rubb
▁ease
▁pepp
ially
▁reveal
▁ideal
▁victim
▁horn
▁safety
▁completely
▁telegr
▁remembered
▁suspicion
▁descended
▁sympathy
ositive
▁explanation
▁tight
▁confirm
▁raise
▁proble
▁struggle
▁hind
▁softly
▁waited
▁barb
▁barbar
▁immedi
▁immediate
▁store
▁bore
▁convey
▁steady
▁arab
mond
▁official
▁trial
▁catherine
▁murmur
▁crime
▁touched
▁carp
osp
▁hosp
▁hospital
▁frag
▁indul
▁hom
omm
▁recomm
withstand
▁practical
▁awake
▁composed
▁instruction
▁lovely
▁purch
ners
▁burden
▁jeal
▁jealous
ckn
cknow
umn
▁bought
▁fought
▁temple
▁nearer
▁devot
etch
▁fetch
▁greet
▁household
▁behold
▁curr
ray
▁betray
▁ray
▁perplex
▁annoy
▁voy
onsense
▁nonsense
▁park
▁positive
▁consum
▁disposition
▁displ
▁display
▁ol
▁oliver
▁don
eld
▁beheld
ee
▁coffee
▁scot
▁unhappy
▁astonishment
ension
▁citizens
▁disting
▁distinguished
▁distinguish
▁distr
▁district
ina
ulf
▁anger
▁departure
▁circle
▁servants
ardon
▁pardon
▁pip
phere
osphere
▁fancied
▁mountains
▁comr
▁violent
▁darling
▁pity
▁gathered
abbit
ern
▁larger
▁exha
▁exhaust
▁illust
rop
▁dor
▁prisoner
▁physic
▁assistance
▁machine
▁meantime
▁widow
▁pan
▁we're
▁they're
▁leaves
▁duties
oseph
▁joseph
▁passeng
▁ox
▁meaning
▁original
pir
▁select
▁pierre
▁produced
▁univers
▁victor
▁suprem
ists
▁julia
▁whist
▁pra
▁praise
▁nay
▁releas
▁apolog
▁paused
▁realized
▁watched
▁watching
▁christm
▁christmas
▁opposition
▁million
▁disappeared
▁mood
▁flood
▁flung
▁growing
▁lies
▁column
▁vanished
▁hunt
▁problem
asm
▁enthusiasm
▁democr
▁affairs
▁appro
▁bal
▁bent
▁bay
▁magnificent
▁wicked
▁lone
▁ride
▁guide
▁abroad
▁abrupt
▁principal
▁thoroughly
▁span
incere
▁proc
▁electric
▁dance
iance
▁merchant
▁deli
▁deliber
▁eating
▁ec
▁cheerful
antic
▁committed
▁sour
▁source
▁memor
▁hunter
▁vision
amb
▁definite
▁roman
anches
▁branches
▁brush
▁ceased
work
▁specul
▁becomes
▁goes
▁occasions
allow
▁swallow
▁movements
▁whit
bles
▁leather
▁leaf
▁unfortunate
▁portion
▁lamb
na
▁trunk
onstr
ille
ville
illa
▁pill
▁marilla
▁polite
▁bloom
▁blush
▁flush
▁bride
▁aside
▁brit
▁british
▁maiden
▁remarked
udder
▁kindness
▁monster
acle
▁butter
▁alter
▁disgust
▁height
▁essent
▁amb
▁ambition
▁louis
▁awa
▁anyone
▁voyage
▁revol
▁proph
▁kitt
▁committ
▁committee
▁retain
view
▁interview
ev
▁nap
▁whil
▁whilst
▁colle
▁college
▁block
▁clock
▁blame
▁frame
▁product
▁chain
▁invited
▁drif
▁driving
▁cop
▁cell
achel
▁excess
▁strict
▁useless
▁lonely
▁pulled
▁wal
ral
▁countess
▁empire
▁sweep
▁swep
▁swept
▁weep
▁sheep
▁creep
▁ventured
▁venture
pe
▁egy
▁egypt
▁trick
▁countries
▁por
▁pause
▁pitch
▁libr
▁library
▁imagined
▁examined
▁drown
▁extended
▁extent
▁attended
vestig
▁continually
▁agreeable
fied
▁violence
▁absur
▁absurd
▁possibility
▁delightful
▁windows
▁necessarily
▁easter
▁thread
▁steadily
▁heavily
▁shaking
▁dearest
▁rope
▁incident
▁essential
▁counter
▁discour
▁mischief
▁fleet
pl
▁clasp
iced
▁noticed
▁ignorant
▁degre
▁agre
▁agreed
▁econ
▁econom
oard
board
▁thornton
▁shoulder
▁disposed
▁alike
▁punishment
▁grim
▁dy
▁consideration
▁bark
▁crept
▁crew
▁thither
▁centre
▁aff
▁robber
▁humble
ivity
▁trip
▁preach
▁spare
▁fare
▁farewell
▁purposes
eas
▁uneas
▁perpet
▁fairy
quis
▁row
▁domest
▁domestic
astic
▁active
mosphere
▁ice
▁respond
▁saddle
▁magistr
▁invent
agger
▁shudder
keep
▁spanish
▁admiration
acity
▁dying
▁conviction
▁deserve
▁desir
opping
▁reven
▁conven
iven
iveness
▁reign
aunt
▁volunt
▁steep
▁elder
▁connection
▁facult
▁advanced
▁stage
▁complain
▁amongst
▁gle
▁gleam
▁guil
▁guilty
▁perceive
▁clearly
▁surrender
▁silently
▁highest
▁manners
▁crush
▁crit
▁uncertain
reh
▁compreh
▁interpret
▁emph
her
▁parli
▁parliament
▁hans
▁quality
▁listened
▁explained
▁singing
▁experiment
▁multitude
▁compell
▁compass
▁ninety
▁desper
▁squire
▁warri
▁appoint
▁permission
▁scrap
▁prim
▁occasionally
▁laws
right
itable
▁circumstance
erchief
kerchief
▁handkerchief
▁straw
▁melancholy
▁destr
▁destruction
▁ugly
▁frequent
▁neighbourhood
▁refresh
▁rome
▁ros
osing
▁hastened
▁acquired
▁imper
▁impul
▁virginia
▁afford
▁sport
▁hale
▁haunt
erted
▁deserted
▁desires
othe
▁plat
▁platform
▁plans
▁kat
▁receiving
rain
▁chest
▁execut
▁hut
▁honey
▁repeat
▁confident
▁reading
▁tit
▁shone
▁everyone
▁sovereign
▁sank
▁sen
▁join
aced
▁succeeded
▁cloak
▁trif
▁weeks
▁likely
ingly
▁carrying
▁assert
▁vigor
▁absor
▁absorb
▁sin
▁careless
▁description
▁tin
▁tiny
▁tied
▁sang
▁secur
▁circl
▁rate
▁warning
▁limit
▁limb
▁reb
▁resolut
▁applied
▁stoop
ulated
▁hate
▁arrive
▁scient
▁scientific
▁tristr
▁tristram
▁sam
▁pear
▁stepped
▁id
▁solid
▁relation
▁feelings
ught
▁florence
▁napole
▁thom
▁thomas
▁instit
▁swear
▁carpet
acles
▁avoid
▁opening
▁ren
▁rabbit
▁sentence
ground
aked
a's
▁accordingly
▁constantly
▁characteristic
▁ident
▁anywhere
▁solitary
▁mercy
▁abund
▁narr
▁nich
▁managed
▁strip
▁hopeless
▁conquer
▁lieut
▁lieuten
▁lieutenant
▁forces
▁reduc
▁hopes
▁undert
pr
▁enterpr
▁terms
▁inquired
▁becoming
▁seriously
▁dismiss
ington
▁washington
▁mother's
▁threatened
▁sunsh
▁sunshine
▁irre
aries
▁gay
▁cattle
▁hamm
▁tramp
▁eagerly
▁formed
▁signific
▁knows
▁likewise
▁monkey
▁gown
▁misery
burg
▁pounds
▁families
▁entre
▁august
▁irr
▁irish
▁irres
▁spend
▁descend
▁literature
▁purple
▁ble
▁ken
▁greatly
▁sink
▁resign
▁demonstr
here
▁valuable
▁dw
▁dash
▁monarch
ew
▁renew
▁ende
▁endeavour
▁endeavor
esh
▁flesh
als
▁national
▁walter
▁glimp
▁giant
▁unpleasant
▁modest
▁mud
▁rust
▁prep
▁tal
▁unw
▁shouted
▁unus
▁unusual
▁spiritual
▁actual
▁mentioned
▁brand
▁branch
▁critic
uf
▁yonder
▁preserve
▁nerve
▁baron
▁degrees
aded
▁persuaded
▁exceed
▁talked
▁possessed
▁plung
▁ain't
atory
▁puzz
▁pil
▁attain
iform
▁uniform
▁failure
▁failed
▁assure
▁mich
▁mut
▁counsel
▁pink
▁appe
▁appeal
cknowled
▁ell
▁craft
▁demanded
cknowledge
▁publ
▁doubtless
oo
oe
oil
▁spoil
▁fro
port
▁tyr
▁tale
▁medic
▁flatter
▁politic
▁mystery
▁energy
▁pig
▁refuge
▁scorn
▁hills
▁fastened
▁jimm
▁activity
▁clothing
▁quiver
▁quant
▁quantity
▁eighty
▁gasp
udience
▁obsc
ifully
▁nav
ox
▁furnished
▁pretended
▁interf
▁protection
▁qual
▁qualities
▁que
▁queer
▁vex
▁title
▁difficulties
▁accus
utumn
▁startled
▁drank
▁dragon
▁regiment
▁emerg
▁candle
▁procl
▁sincere
▁representative
▁whither
▁scotland
▁market
▁raising
▁separate
▁separated
▁rad
▁ragg
▁central
▁blaz
▁gardens
com
omfort
▁outer
▁nichol
▁nicholas
▁invol
▁invitation
▁apartment
▁disappointment
▁daughters
▁robin
▁admin
▁administr
▁falling
▁idiot
ators
▁tort
▁nut
▁flame
▁flag
vell
▁retort
▁successful
▁ment
▁mental
▁current
fall
▁function
▁pipe
▁capacity
▁preserved
▁contempl
▁gaze
▁suffering
▁leading
▁disgu
▁survey
uchess
ifest
▁manifest
▁haste
▁finish
▁veil
▁disgr
▁disgrace
▁condemned
▁decision
▁civilization
▁cele
▁celebr
▁plainly
▁finding
▁tables
ilities
▁we've
unning
▁inquir
▁witch
▁trembling
▁retreat
▁craw
▁universal
▁jer
▁prud
▁pin
▁jim
▁billy
anny
▁richard
▁interesting
▁presum
▁permit
▁benefit
▁portra
athing
▁ignorance
▁earlier
▁union
illy
▁opinions
▁num
▁numer
▁numerous
▁nest
▁torn
▁lucy
▁population
lies
▁jewels
▁novel
▁virtues
▁rh
▁ash
▁desk
▁weakness
▁silly
ois
▁streets
▁ruin
▁patch
▁scratch
usk
kind
▁mankind
▁vivid
▁snatch
▁mont
▁monte
▁et
▁fulf
acc
▁wrapped
▁reput
▁repair
▁lodg
stairs
▁flutter
▁maxim
▁charming
▁shield
step
▁shade
▁local
▁dogs
▁impro
▁closely
▁stamp
▁consequences
▁telegraph
▁breathing
rell
▁brow
▁cunning
▁cav
▁congress
▁extremely
▁discip
▁ze
▁fee
▁feeble
▁ward
ture
▁mixture
▁jeff
▁intent
lly
▁wholly
▁shell
▁convict
lict
▁probable
▁caval
▁poem
▁pover
▁poverty
▁driver
▁shirt
▁ruth
▁conflict
▁maybe
upon
▁exceedingly
▁anxiously
▁glor
▁glorious
▁coward
▁im
▁image
▁palm
mith
orm
▁enorm
▁enormous
▁woods
▁wooden
▁frown
▁base
▁bond
▁unable
iable
▁prize
▁tremend
▁fortnight
▁tradition
▁articles
▁article
▁haw
▁peep
▁slender
▁proposition
▁declare
▁prepare
▁mirr
▁painful
▁relieved
▁supply
▁tower
▁manage
▁harsh
iday
▁holiday
▁desperate
en't
▁chris
▁observation
ehead
▁forehead
▁causes
▁reality
▁rachel
▁moonlight
▁commenced
▁involunt
▁katy
cy
▁stirred
▁indians
▁brook
▁uncomfort
▁jean
riek
▁shriek
▁arist
▁aristocr
▁twist
▁matters
▁reference
▁indifference
bury
coat
▁bones
▁refused
▁refuse
▁affirm
▁furnit
▁furniture
▁imperfect
▁thrill
▁cutting
▁marvell
▁marsh
▁thief
▁hy
▁hint
orthos
osom
▁bosom
▁examination
▁development
▁hoped
uk
▁monk
ecture
▁dwar
▁dwarf
reck
▁awoke
▁ech
▁madam
▁echo
▁ring
▁inj
▁happily
▁attribut
▁scarlet
▁accustomed
▁applic
▁await
▁pit
rived
▁hearing
▁knowing
▁joe
▁job
bly
▁doctr
▁instruments
▁instruct
▁construct
▁suffered
▁secured
▁pearl
riet
▁propriet
get
▁veget
▁generous
▁slightest
▁slightly
▁lev
▁revenge
▁stout
▁san
▁mighty
▁he's
▁what's
▁atmosphere
▁lat
more
▁rude
▁opposed
▁lightning
▁increased
▁suggested
▁stretched
▁arranged
▁liqu
▁natash
▁ing
▁cock
▁rage
▁sar
▁marvel
icip
▁anticip
▁tip
▁vic
▁shake
▁kindly
▁cease
▁ban
▁bath
▁cath
▁cathol
▁catholic
▁batter
▁cities
incol
incoln
▁lincoln
▁lest
▁wishes
▁proclaim
▁prisoners
▁ordered
▁transport
peare
akespeare
▁strangers
▁rout
▁railroad
▁reputation
▁louise
ountain
▁fountain
osen
▁chosen
osh
▁fairly
▁escaped
▁puzzled
ufact
▁overcome
avery
▁flying
▁hadn't
▁boast
▁contrast
▁marble
▁cries
▁rear
born
▁pictures
▁advantages
▁hatred
▁tun
▁supreme
▁gest
▁gesture
▁ham
▁pup
▁poetry
▁melt
▁dwelt
▁asham
▁ashamed
▁rushed
▁neighbors
voided
▁extern
▁buff
▁amid
▁warriors
uary
tic
athetic
▁devotion
▁sau
▁grie
▁smart
▁heads
▁orders
▁frozen
▁merit
▁spear
▁slavery
▁slip
▁june
▁reform
▁penc
▁wounded
▁mirror
▁rib
▁refer
▁border
▁disorder
▁displeas
▁begged
▁duchess
▁remote
ernard
▁bernard
▁ma'
▁pir
▁bedroom
▁wreck
▁informed
▁recognize
▁turkey
▁tax
▁keeping
ening
len
▁helen
▁wives
▁ard
▁tend
▁sooner
▁worry
▁spirits
▁complaint
▁suppress
ifth
▁fifth
▁illustr
▁rog
▁debt
▁sult
▁sof
▁inclination
▁determination
▁fatig
▁medicine
▁played
▁motionless
▁eternal
▁looks
▁rocks
▁readily
▁emily
▁sensation
▁sensitive
▁senses
ades
▁comrades
▁comrade
▁ma'am
aham
ibly
▁fatal
▁pupil
▁nodded
▁whence
▁od
▁sultan
▁mourn
▁mild
▁exquis
▁published
▁wrath
▁trap
▁timid
▁members
▁exquisite
▁encourage
▁dusk
▁clerg
bb
▁bree
▁breeze
▁operation
▁reluct
▁wagon
▁won
▁utterly
▁fields
▁brothers
ters
▁conditions
lter
▁shelter
▁emm
▁waves
▁picked
▁delighted
kin
▁apparent
▁fil
▁anti
▁doroth
▁penet
▁penetr
▁appet
▁appetite
▁ladder
antly
▁excellency
▁rif
ued
▁community
▁parts
▁spell
▁changes
▁absent
▁fighting
izing
▁listening
▁tones
▁tis
▁steel
▁attent
▁waved
▁wax
▁beaten
▁helpless
▁portrait
▁breathe
▁footstep
imney
▁chimney
▁domin
▁funny
▁staff
▁sauce
▁dutch
▁adopted
▁note
▁proceeded
bridge
▁detective
▁swell
▁swung
'n
jud
▁prejud
aud
▁expressed
▁shift
▁obser
▁features
xic
▁glanced
ology
ological
▁previously
▁bestow
▁stars
▁deeply
▁joyou
ipped
▁shiver
▁bushes
▁railway
▁troubles
liness
▁albert
▁telling
▁calling
▁pushed
▁venge
▁vengeance
▁related
▁incred
▁dancing
▁plate
▁mouse
house
▁troubled
wild
▁simplic
▁industry
▁ruined
▁leis
▁leisure
▁decide
▁treatment
▁crimson
▁johnson
▁hanging
▁bargain
▁effic
▁ridic
▁ridiculous
▁lodge
▁pool
zard
azz
▁ceter
cknowledged
▁simon
▁whisk
▁whip
▁kissed
▁tremendous
▁shakespeare
▁frog
▁steal
▁solitude
▁elsewhere
▁impulse
place
▁hook
▁accepted
▁conception
▁horizon
estern
▁western
▁altern
▁wake
▁approached
▁neat
▁ere
▁fund
▁created
▁schol
▁net
▁weary
▁lawy
▁satisfactory
▁peasant
istol
▁pistol
▁polly
▁porthos
▁gates
▁final
▁zeal
ovitch
▁consol
▁gallery
▁approaching
ambl
irty
▁dirty
▁unexpected
▁limited
▁exert
▁naked
▁romantic
▁penny
▁russian
▁edith
ered
▁fer
▁slipped
▁regarded
▁concerned
▁eggs
▁sore
▁flock
▁mock
agre
▁disagre
▁cheap
▁intimate
▁tomorrow
itor
▁holl
▁selfish
▁favorite
▁easier
bour
▁contrad
▁lift
▁thresh
▁threshold
▁imprison
▁physician
▁surprising
▁mutual
▁gloomy
inal
▁cardinal
▁criminal
▁lately
▁unfortunately
▁throng
▁romans
▁nail
▁remove
ule
chie
▁slaves
cel
▁precip
▁dian
▁diana
avern
▁compliment
▁range
▁grate
▁grateful
imate
▁depress
▁wretched
▁troops
▁creatures
▁furnish
▁propos
▁lawyer
erem
▁cerem
▁ceremony
▁agony
▁region
▁ult
▁suggestion
▁americans
▁restrain
▁bul
▁expense
▁oath
▁rum
▁alm
▁unl
▁neighborhood
▁childhood
▁advised
▁pressure
▁pressed
▁torture
▁ragged
▁rejoined
▁politeness
▁estate
▁chees
▁beautifully
▁spectacle
▁striking
▁exception
▁floating
▁anguish
▁province
▁henri
▁exposed
▁resumed
▁crossed
▁requires
▁tex
▁firmly
▁friendly
▁struggling
▁nations
▁holland
▁satisfy
▁perse
▁glimpse
▁interested
mber
▁brid
▁copp
▁bon
▁summon
▁legis
▁legisl
▁profit
▁boots
▁established
▁crying
iece
fric
▁completed
▁trace
▁roses
▁rival
▁jac
▁jacob
▁eaten
▁eastern
▁reserve
▁blew
▁page
▁undou
▁teleph
▁obvious
▁purchas
▁purchase
▁susan
elia
▁majority
▁gallop
▁millions
isions
▁provisions
▁series
ofty
▁rag
van
▁continent
▁cheeks
▁sarah
▁quoth
▁impatiently
▁impatience
▁impatient
▁convenient
▁fired
▁wire
▁emphas
▁independent
▁meat
▁fasc
▁creek
inction
▁distinction
▁section
▁shouldn't
whel
▁contents
▁contact
▁mortal
▁discussion
▁infant
eem
▁esteem
▁bade
▁exped
▁expedition
▁playing
ding
edding
▁wedding
▁working
▁asking
chan
▁mechan
▁cam
▁growth
▁oil
▁privilege
▁bol
action
▁convinced
▁devoted
▁ships
▁ins
▁insist
▁inspect
▁insult
▁clouds
▁brandon
▁barn
line
▁collar
▁kick
wick
▁obviously
▁lofty
▁lion
▁dart
▁abst
▁abstract
▁resc
▁rescue
used
▁confused
▁ca
▁humour
▁gazed
▁parties
▁dram
▁drag
▁ahead
▁jackson
▁wilson
▁engagement
▁bench
▁transf
▁jumped
▁pointed
▁stroke
▁sharply
▁pron
▁pronounc
ropri
▁appropri
pped
whelm
▁asc
▁ascertain
ained
▁dining
▁indiffer
▁indifferent
▁tempt
▁slain
▁terribly
▁der
▁derived
▁gro
▁groan
▁obtained
▁farmer
▁pierc
▁crist
▁cristo
▁rod
▁wherever
▁lap
▁chann
▁china
▁thine
▁examine
▁cetera
rid
▁corrid
pired
▁practically
▁thanks
▁intelligent
▁fires
▁properly
▁disagree
▁nurs
▁announced
▁anyhow
▁aren't
▁comparative
▁margu
ixote
▁quixote
▁gil
▁gilbert
▁surv
▁unm
mon
▁supplied
▁supposing
▁realize
▁garments
▁passengers
▁charged
▁indulg
▁cig
▁behav
▁waste
▁congr
▁conceived
▁deceived
▁carol
▁secretary
▁essence
▁ecc
▁eve
oisell
▁swimm
▁awk
▁awkward
▁gracious
engthen
ef
▁fatigue
▁elements
▁eleg
▁elev
▁election
▁element
▁preced
▁precaut
▁apple
▁ple
▁rifle
▁marked
▁uttered
▁employed
▁weap
▁weapons
▁universe
▁sne
▁sancho
▁oct
▁persuade
▁signal
▁roast
▁stole
▁sty
▁style
▁stuck
▁chuck
▁stopping
yn
▁preferred
▁deem
▁breathed
▁terrified
▁gained
▁ber
▁prayer
▁inhabitants
▁concluded
▁repent
▁isabel
▁yards
▁fortunate
▁fortunately
▁production
▁reject
▁innocence
▁temperature
▁stat
▁congrat
▁humanity
▁security
quet
ara
aly
arse
ural
▁external
▁assur
▁unwill
▁dismay
▁napoleon
▁commer
▁commercial
▁grove
▁barrel
▁backward
▁salut
▁comparison
▁instances
go
foot
▁literary
▁skirt
encies
uries
▁centuries
▁images
▁intend
▁pian
▁piano
▁caress
▁richmond
▁connected
vail
osure
▁depos
▁remembr
sem
sembly
▁despite
▁favourite
▁authorities
▁matthe
▁matthew
▁veh
▁vel
▁velve
▁forms
▁dared
▁genu
▁genuine
ulgar
▁pul
▁overwhelm
▁diss
▁endure
▁peasants
▁afflict
▁volume
▁transform
▁december
▁pole
▁presented
lin
▁wither
▁believing
▁misfortune
▁sprink
▁acquainted
▁advert
▁sisters
▁observing
▁distract
▁pony
quire
▁described
▁describe
▁mode
▁knee
▁pirates
▁fury
▁injury
▁chose
▁prose
▁recovered
▁specially
▁visitors
▁lifting
▁dropping
▁ingen
▁narrative
▁standard
▁interior
ember
ptember
▁september
▁wept
ption
▁division
▁contribut
▁you'd
▁undoub
▁undoubted
low
▁pillow
▁industri
▁serge
▁serp
▁muttered
▁marian
▁lin
▁linen
omen
enomen
▁phenomen
▁donkey
▁budd
▁tenderness
▁fitted
▁valj
▁grav
▁francis
▁hunger
▁ones
▁rat
▁arrangement
▁propose
▁peril
▁dan
▁friday
vember
▁violently
▁ways
▁uns
▁unre
▁captured
▁injured
▁announce
▁tomb
▁precisely
▁needed
▁eldest
▁income
▁restor
▁decor
▁ability
▁introduced
▁trump
▁kenned
▁pretend
▁bowed
▁immort
▁nancy
▁ashore
▁commerce
▁encl
▁timber
▁supplies
▁lament
▁frightful
▁hit
▁fulfill
▁summit
▁glove
▁vac
▁borrow
▁purse
▁clergy
▁deny
▁perpetual
ulate
▁uncomm
▁residence
▁providence
▁cream
▁tar
add
▁newspaper
▁newspapers
icken
▁raoul
▁mounted
umbled
ella
▁compelled
▁phot
▁photograph
▁cheese
▁bearing
▁belt
▁rolled
▁addressed
▁surrounded
▁feed
▁strok
▁jes
▁jesus
▁luxury
▁losing
▁lan
▁lantern
▁introduce
▁composition
▁louder
▁studied
▁waistcoat
▁leaning
▁plum
▁scheme
▁naught
cr
▁brick
▁sailors
▁sailor
▁spani
▁spaniard
▁clay
phew
▁nephew
alph
▁ralph
pher
pherd
▁alt
▁folly
urday
▁saturday
▁reckless
▁pace
uncel
▁launcel
▁laur
▁gallant
▁convention
chester
▁dreams
▁alexand
▁lyn
imony
▁launcelot
umbrell
▁umbrell
▁ur
▁experiences
▁phr
▁phrase
▁carri
▁manufact
▁understanding
▁sull
▁vulgar
▁unlike
▁extract
etic
▁aspect
▁hush
▁inspir
▁elb
▁returning
▁embraced
▁embrace
▁contradict
▁recommend
▁inspired
▁monstr
▁weapon
itter
▁glitter
olet
▁violet
▁duck
▁pluck
▁champ
apping
▁arguments
▁july
▁affected
▁preparations
▁reception
▁someone
▁deserved
▁desol
▁cautiously
▁elbow
▁kate
▁heat
▁hell
▁damp
▁defend
▁riding
▁encouraged
▁accur
▁efforts
▁score
▁resour
omach
▁stomach
▁treach
▁rules
▁guilt
▁induc
▁india
▁batt
▁fearful
▁embro
rog
isp
isk
▁brisk
▁musk
▁brut
▁brig
▁rig
▁constitut
wildered
▁safely
▁aboard
▁responsibility
▁scattered
▁musc
▁muscular
case
▁staircase
▁chase
chieve
▁wondered
▁prudence
ili
▁humili
▁punished
▁princes
▁angri
▁assembl
▁cryst
▁borne
▁objection
▁objects
▁disagreeable
▁flames
▁confined
▁denied
▁snake
look
moisell
▁concent
▁concentr
▁sighed
▁investig
▁sway
▁doorway
fore
▁glob
▁appears
ites
▁ages
oster
▁porter
▁porch
▁rebell
cast
▁faded
▁beard
ease
▁disease
▁sunlight
▁pilgr
▁awaited
▁amusement
▁seal
▁mademoisell
▁waver
▁resent
▁escort
ourse
▁indignation
▁citizen
▁doctrine
adow
▁tread
▁tad
ren
▁restless
becc
shire
aire
▁wants
▁bert
▁rebecc
▁revel
bur
burgh
▁institut
▁coarse
ighth
▁eighth
▁weigh
▁vest
▁faced
▁woman's
▁compet
▁worked
▁perceiving
▁celebrated
▁dig
▁bundle
▁resistance
▁tendency
▁sunk
▁highly
▁partly
▁morgan
▁cyr
▁discipline
▁bigg
▁telephone
▁prodig
▁artific
▁daylight
▁accompany
▁reserved
▁seize
▁sees
▁directed
▁exagger
▁ench
▁enchant
▁joke
▁leaned
▁julius
▁interfere
▁sentiments
▁gods
▁doors
▁chill
▁curiously
▁delicious
▁ruins
▁multip
▁refrain
▁indicated
▁locked
▁array
onday
▁sust
▁probability
▁glac
▁cos
▁cosette
▁mos
▁notwithstand
▁wheat
▁humor
▁swiftly
▁rigid
▁slid
▁introduction
▁musical
▁fog
▁fir
quirrel
▁wherefore
▁housekeep
▁enterprise
▁scenes
▁waving
bor
bacc
abb
▁patron
▁independence
▁shepherd
▁frost
sey
bacco
▁assurance
▁slaughter
▁balloon
oonful
fulness
▁anna
▁abruptly
oqu
▁eloqu
▁hideous
▁infer
▁inferior
▁embroid
win
inated
▁mask
▁mould
▁remains
▁moments
▁insect
▁johnny
▁referred
▁georg
▁decre
reland
▁tick
▁upstairs
omb
lars
▁danglars
▁pilgrim
▁horrid
▁specim
▁wilt
edge
▁destroyed
▁burg
verage
▁journ
▁institution
▁devour
▁struct
▁structure
▁stagger
▁communication
ka
▁grain
▁simplicity
atural
▁entreat
▁saving
▁points
▁bor
▁tempor
▁adjust
▁unjust
▁deprived
▁contrived
▁philosophy
worthy
inate
itate
▁adorn
▁dried
▁mission
▁britain
▁examining
▁chok
▁cher
▁marguer
▁marguerite
▁struggled
▁worm
▁rendered
▁patri
▁bitterly
▁steph
▁stephen
force
▁one's
▁pepper
▁knelt
▁breaking
▁velvet
▁slumber
▁hated
▁admire
nament
▁ornament
ilight
▁twilight
bled
▁twink
▁patiently
▁wet
▁jones
▁furious
onies
▁gazing
▁operations
▁pursued
▁cred
▁credit
▁classes
▁arrangements
▁harbour
▁cotton
▁naut
▁administration
▁channel
▁closer
▁kneel
▁moist
▁guests
ensible
▁assault
▁assign
asper
▁sensations
lor
▁stricken
aps
▁eagle
ique
▁fel
▁intentions
▁errand
▁error
▁administer
▁artist
▁heartily
▁pencil
▁tide
▁messenger
▁leader
▁retire
▁agitation
▁ali
▁villain
iscilla
▁whereupon
▁passions
▁disguise
▁seas
▁obscure
▁remonstr
alian
▁italian
▁speedily
▁conceive
ape
natural
▁spur
▁spain
▁invis
▁invisible
ceptible
▁throwing
habited
▁comment
▁puff
▁hoarse
▁parlour
▁torment
▁suck
▁incomp
▁incon
▁inconven
▁wolves
▁bloss
▁blossom
otted
▁tremble
▁testimony
ugh
▁stared
▁badly
▁coron
▁coal
agues
▁primitive
evitable
ribution
ribute
lyosh
lyosha
▁accomplished
itory
▁territory
umbling
▁arise
▁turtle
▁apost
▁apron
▁mc
ces
▁resources
▁male
▁moss
athedral
ovna
▁apprehension
▁machin
▁machinery
▁bidd
▁hero
▁floated
▁ribb
nes
azy
▁uneasy
▁dorothy
▁notwithstanding
▁respectable
▁emot
▁emotions
▁rejoiced
▁steward
▁upward
▁fred
▁freder
▁frederick
▁natasha
▁sofa
▁drum
▁launch
▁disch
ched
▁attached
itating
▁uncomfortable
ugged
ashed
▁kitty
▁statement
▁enjoyment
▁indisp
▁jolly
▁shadows
rov
▁alexandrov
▁pleaded
▁plead
▁attorn
▁attorney
▁generosity
▁norman
yard
▁entering
▁conject
aws
▁lav
▁cheerfully
▁regain
▁forever
▁department
ement
▁amazement
▁climbed
semble
▁editor
▁hay
▁wrink
▁wrought
▁breathless
▁treas
▁combat
▁combined
▁reader
ering
▁cler
▁clerk
▁writer
erable
▁eleph
▁stalk
▁harmony
▁bringing
uring
▁couch
▁contained
▁hatch
▁geograph
▁sem
▁corrupt
▁hood
▁brood
▁hugh
▁chiefly
▁distinctly
▁sadly
▁formerly
▁finest
▁procure
▁ashes
▁dimin
▁chin
▁emin
▁annie
▁irresist
atre
▁asserted
can
▁volcan
▁harr
ring
▁stirring
rav
▁extrav
▁extravag
▁risen
▁motor
▁trembled
ais
▁parad
▁paradise
▁advise
▁lands
▁landsc
▁landscape
▁obed
▁obedience
▁likeness
▁dragged
▁apples
smith
▁thumb
▁ridge
▁graham
▁seren
▁departed
sy
sych
▁psych
rey
▁inquiry
▁blown
▁pond
▁cannon
▁eyed
▁democratic
▁access
▁exchange
▁dale
▁sale
▁review
▁bust
▁worried
▁tub
▁slope
▁circular
▁cake
▁assent
▁slop
eg
▁dangers
▁prayers
▁stronger
▁delicacy
owl
▁fowl
vol
▁benevol
▁coffin
▁monday
▁magician
▁experiments
▁responsible
▁serpent
▁construction
▁valje
▁valjean
▁interrupt
▁downstairs
▁equality
▁prime
▁chall
▁earnestly
▁repose
▁exhausted
▁medium
▁medical
▁agent
▁slee
▁stroll
▁serving
▁jap
▁japan
▁visitor
▁scrup
▁threatening
▁despatch
▁carr
▁fanny
▁ceil
▁haught
▁hail
▁hare
▁hamp
▁nautil
▁discharg
▁discharge
▁agric
▁agricult
▁nautilus
▁reflected
▁painted
▁peak
▁fame
▁jerk
▁prosperity
rant
rous
▁durham
▁adventur
▁fellows
▁bind
▁bid
rig
▁showing
▁copy
▁mademoiselle
▁homes
▁bolt
▁forb
▁forbidden
▁mexic
▁meadow
▁candid
▁solic
▁solom
▁solomon
▁warned
▁planned
▁deliberately
▁droop
▁cru
▁god's
▁weeping
▁bonn
▁dil
▁soil
▁fogg
▁observations
▁details
▁rays
▁butterf
▁punct
▁defence
▁suitable
▁perfection
▁speck
▁defe
▁establishment
▁savages
▁deaf
▁forgetting
▁hypn
▁hypnot
▁interposed
▁ambass
▁balance
▁recognised
▁recognition
▁burnt
▁burned
▁rip
▁hypothe
▁hypocr
▁poured
▁insisted
▁vanity
▁charity
▁charl
▁charlott
aine
▁earliest
▁englishman
▁confound
▁priscilla
▁knocked
▁pine
▁ponder
▁crazy
▁dislike
▁plague
umult
▁tumult
▁bald
▁lessons
back
▁robb
▁joint
▁subtle
▁subs
▁subd
▁subdued
rence
▁cub
▁fisherman
▁leagues
▁promises
▁mail
sion
▁compassion
▁procession
▁complexion
▁improved
▁bone
▁smoking
justice
▁machines
▁reduced
▁succession
esc
▁condesc
▁crouch
▁crook
▁patriot
▁signs
▁shrink
phia
▁russia
▁polished
▁behaved
▁cruelty
apt
▁bapt
▁caution
▁superint
▁alight
course
▁intercourse
▁pred
▁prair
▁felic
▁regions
▁jury
▁lust
▁distrust
▁lane
▁revolver
▁liver
▁magistrate
▁knights
▁wip
▁elegant
▁educated
▁columb
▁dumb
▁dazz
▁ambassad
▁conclude
▁complic
▁arous
▁rous
▁torr
▁appr
▁approve
▁apply
▁appl
▁angrily
▁scrambl
▁sobb
▁persec
▁irreg
▁irregular
▁resolute
▁enthusiastic
▁gives
▁performance
▁audience
▁romance
▁remembrance
ram
▁marius
▁sergeant
▁bodily
▁vigorous
uster
▁metal
▁amused
▁goat
▁cousins
▁perman
▁artificial
▁let's
▁prosec
after
▁hull
▁prey
▁abandoned
▁helped
▁disturbed
▁draught
▁improvement
▁hedge
▁soup
▁merchants
▁halted
▁martin
pic
picuous
▁conspicuous
▁rav
▁copper
udding
▁knot
▁trot
▁traged
venue
▁sounds
▁damsel
▁sack
▁dignified
iency
▁induce
▁facts
▁hearts
▁destined
▁destin
▁patter
▁chatter
▁pant
▁assistant
▁pall
▁works
▁figures
▁radiant
▁belonged
▁guns
▁terrif
▁resort
▁sanct
▁rect
▁swarm
▁behave
▁mac
▁culture
▁graceful
iful
▁assail
▁anyway
▁recently
▁micha
▁michael
▁journal
▁pope
▁inex
ulating
▁squee
▁ratt
▁thence
▁memories
▁spectacles
▁thyself
cell
aker
▁promptly
▁contest
▁folks
▁observer
▁detain
▁deed
▁defect
▁woe
▁planet
▁navig
▁lemon
▁undertake
▁fortunes
tor
▁histor
▁involved
▁throb
▁altar
▁exhibited
▁exhibit
▁miracle
▁cavern
▁strengthen
▁wandered
▁wandering
▁ton
onc
▁lesson
▁prost
anqu
▁tranqu
▁tent
▁submit
▁abode
▁provision
▁provide
▁organization
▁wondering
▁sullen
▁pursue
▁germany
▁tales
▁scale
▁assumed
▁fundament
▁captive
▁glacier
▁jest
▁jen
▁jason
▁hiding
▁legislature
▁strongly
▁freely
▁moderate
▁suspended
▁colors
▁delivered
▁impart
wart
▁rooms
▁solution
▁employment
▁ecst
▁compared
umble
▁yo
▁suspected
abled
▁enabled
▁enl
▁quarters
▁generation
▁largest
▁strait
itud
itudes
▁plot
▁scare
ourning
▁mourning
wers
▁corners
▁weren't
▁pac
▁pacific
▁discl
cles
▁muscles
▁extensive
▁extend
▁perf
▁perfum
▁indef
▁indefinite
▁transl
▁suited
▁corpse
▁corpor
▁defeat
▁declined
ora
▁emma
▁literally
▁conclus
▁adj
▁relieve
▁mixed
▁cavalry
▁recent
▁tang
▁swamp
▁monstrous
▁winds
▁pile
▁limp
▁fragments
▁sher
▁sheriff
▁shaw
▁shor
▁shagg
▁shoe
▁bother
▁bible
▁prem
▁clut
▁tore
▁turk
ky
▁occupation
▁funer
▁funeral
▁concealed
dr
▁withdr
▁withdraw
raham
▁abraham
▁mosc
▁moscow
▁vital
ulliver
▁snapped
▁convince
▁convul
▁older
▁younger
▁potat
▁potatoes
▁faster
▁lanyard
▁insol
▁gw
▁herbert
▁rasc
sued
▁follows
▁resol
▁confession
▁lecture
▁reasonable
▁beggar
▁stayed
▁reconc
▁quot
▁quit
sitated
▁hesitated
▁agitated
▁interests
▁banks
▁shaggy
▁arriving
▁superintend
▁inflict
▁transpar
▁scott
▁magg
▁maggie
▁woke
▁impressions
▁overlook
▁criticism
▁unb
▁absorbed
▁speeches
▁unkind
▁situated
▁feared
▁printed
▁print
alt
▁shalt
ft
▁sympt
▁symptom
▁applause
▁treasury
▁undoubtedly
▁distribut
▁lordship
▁senator
▁undertaking
▁patsy
▁sleeping
▁staring
▁seeking
▁chicken
▁chances
aign
▁campaign
▁yourselve
▁stands
▁inquiries
▁apartments
olen
▁stolen
▁stable
▁stove
▁intelligible
▁incredible
▁adopt
▁button
▁cush
ird
▁bud
▁hawk
▁discourse
▁verse
berry
▁intens
ensions
▁combination
▁goodness
▁nursery
▁gratify
▁application
▁drake
▁he'll
▁sparg
▁granted
▁commanded
▁fled
▁levin
inations
▁eust
▁eustace
▁leaped
▁squirrel
▁sire
▁illum
▁persever
▁incap
▁envelop
▁cellar
▁slew
▁descent
▁unse
sequ
▁subsequ
▁minor
▁sketch
▁exclam
amed
▁sufferings
▁jealousy
▁holes
▁ju
▁parish
▁vault
▁remainder
▁battles
▁conj
▁owe
▁institutions
▁rou
▁affectionate
▁sunny
▁flee
▁fence
▁cigare
▁cigar
▁jar
▁jan
▁january
bruary
▁february
▁hencefor
▁venus
▁lily
igantic
▁gigantic
▁cordial
▁martyr
borough
▁recollection
▁kennedy
frica
▁contemptuous
▁virtuous
▁unreason
velope
▁dispute
▁bost
▁boston
▁bending
▁hostile
▁hound
▁letting
leness
▁landl
▁landlord
▁plants
▁carved
▁syn
▁hoof
▁antiqu
▁latin
▁proposal
▁gravely
eous
inous
▁goose
▁wink
▁enjoyed
▁occupy
acon
▁foul
▁advertise
▁tempted
▁script
▁archit
▁architecture
▁substit
▁smaller
▁veins
▁brass
▁surpass
▁parcel
▁guided
rage
▁center
rod
▁detach
▁beach
▁shill
▁sew
▁sympathetic
▁hunted
▁jewel
▁horseback
▁shaft
▁spargo
▁superst
▁crest
iter
▁teacher
▁fant
▁fantastic
leton
▁provok
▁cure
▁represented
▁ended
▁jail
ait
▁apr
▁april
▁skull
ikov
▁commander
▁tyranny
auvel
▁resolve
▁rolling
▁jimmy
▁jimmie
set
▁sunset
▁increasing
▁shores
▁recommended
ache
necess
▁unnecess
▁unacc
▁armed
alog
▁shooting
▁agnes
cules
▁embark
▁prow
▁capture
▁falsehood
▁calmly
▁gravity
inity
▁assass
▁blast
▁pinoc
▁pinocch
▁pinocchio
▁suspicious
itz
▁decay
▁chariot
idents
▁urged
▁prophet
oh
araoh
▁pharaoh
▁perception
▁warmth
▁elean
▁unnecessary
▁murderer
▁ger
▁gal
▁gang
ange
▁orange
▁gor
▁gorge
▁gulf
▁gas
geon
alty
▁betty
▁eleanor
▁liberal
▁tap
▁interm
▁danced
iding
▁civilized
▁raggedy
▁coloured
▁remaining
▁clergyman
▁plunged
▁prick
lfare
▁samuel
▁breton
▁breed
▁decent
▁depths
▁wail
▁likes
▁specific
▁visited
▁sons
thren
▁brethren
▁liquid
▁clover
▁economic
▁wag
▁inspector
▁crowded
▁closet
▁antagon
▁shortly
▁conjecture
▁mathe
▁uneasiness
▁vote
▁smote
▁irresistible
▁inexp
▁temptation
▁enlight
utom
▁surgeon
▁rent
▁exult
▁simult
▁bonnet
▁scholar
▁cherished
▁meal
▁worsh
▁sleeve
▁whoever
▁grin
▁valent
▁valentine
▁autumn
▁til
▁consumption
▁clothed
▁they've
▁relax
▁colored
▁fawn
▁intently
▁amiable
owed
▁barri
▁shrew
▁shrewd
▁shaken
▁appearances
▁scarec
▁scarecrow
▁venerable
drew
▁washed
▁francs
▁rud
▁exclus
about
▁ot
▁cathedral
atern
▁condemn
▁intern
▁corridor
▁simultane
▁picturesque
▁string
▁bowl
▁repl
▁replaced
▁imperial
▁inn
▁penn
▁lawn
▁provinc
▁amidst
▁ireland
▁transfer
ulations
▁generations
▁pave
▁pavement
▁appointment
▁spectators
▁link
equ
▁assume
▁roused
▁unusually
▁guardian
▁overhead
ucc
▁grind
▁partner
▁milton
▁sym
▁symb
▁symbol
▁crumb
▁crash
▁raft
▁collection
uffled
▁exercised
▁sounded
▁nigh
▁preparing
▁preparation
▁opportunities
▁swim
▁involuntarily
▁exercises
▁sparkling
▁permanent
▁scent
▁dew
▁retorted
anz
▁franz
▁perceval
▁students
▁explor
▁explos
▁mule
iting
▁exciting
▁tongues
▁substant
▁substances
▁hoop
▁lighted
▁pronounced
atically
▁niece
▁non
▁stores
▁travellers
iel
▁daniel
ih
izz
▁viz
izes
▁vot
▁reass
▁dost
ridge
▁issued
▁merri
▁avail
▁italy
▁stray
umm
▁conform
▁dismount
▁envelope
▁scold
▁incapable
▁esther
burn
▁recess
▁forgiven
▁norm
▁normal
▁legal
▁slay
▁circuit
▁drift
▁luxur
▁candles
oid
▁pilot
▁warrior
▁griev
▁grieved
▁eternity
▁polic
▁praised
▁entit
▁entitled
▁furiously
▁intimacy
▁reverence
▁groom
▁resemblance
▁temperament
▁exhibition
▁advoc
▁idol
▁uncommon
▁comprehend
▁certainty
▁actions
▁date
▁dense
▁habits
▁drinking
▁doubtful
▁significance
▁smiles
▁masses
▁ark
▁subjects
▁abb
nesday
▁fest
▁temporary
▁harbor
▁substantial
▁owing
▁psmith
▁misunder
▁plunder
▁plough
▁lucky
▁beasts
▁rebecca
▁juliet
anced
▁prairie
ieth
▁twentieth
▁stealth
▁wearing
▁reaching
▁changing
elphia
adelphia
▁philadelphia
▁digg
ishing
▁mathem
▁ceremonies
▁admission
▁prol
▁prolong
▁scotch
▁superf
▁scor
▁approved
▁shy
▁offended
▁marcell
▁hazard
joice
▁shower
rim
▁fitting
▁kid
▁forbid
▁harvest
ifications
▁pages
▁villages
▁emphasis
▁sustained
▁sustain
▁illness
▁enclosed
mouth
▁humm
▁ascend
▁ascended
▁henriett
▁revealed
▁sledge
▁games
▁critical
▁traver
▁jaws
▁november
▁temples
▁upright
▁thousands
▁tilney
▁quaint
▁hospit
▁hospitality
▁association
▁containing
▁wing
▁concert
▁needs
▁quarrell
▁controll
▁policy
▁happier
▁happiest
▁tempest
▁pirate
▁tig
▁gathering
▁stained
▁stated
▁stump
▁twas
▁crop
▁essentially
▁limbs
▁warrant
▁curse
▁thur
▁outward
▁nowhere
▁sphere
▁university
▁sailed
▁natured
▁jerry
▁estim
▁estr
▁estrall
▁stall
▁stim
▁aim
▁stool
▁wool
▁prostr
▁behal
▁behalf
▁juice
▁amelia
▁developed
▁envy
▁results
▁parson
▁watson
▁reasons
▁cough
▁din
▁shouting
oever
▁octo
▁october
ago
erson
▁dishon
▁descending
lcom
▁welcom
▁lazy
▁strictly
▁coachman
cription
uscript
▁cigaret
▁promising
▁subl
▁sublime
▁varied
▁hired
ola
▁abundance
▁monot
▁they'll
ouquet
zzie
▁flank
▁loudly
▁acquire
▁aladd
▁sources
▁duration
rom
▁destiny
▁procured
▁darcy
▁promin
oundrel
▁scoundrel
abella
▁bachel
▁compare
iscuit
▁rosy
▁chauvel
▁hasn't
▁edison
▁performed
▁clara
▁passionate
▁shrugged
▁obstacle
▁invention
▁sleeves
▁comprom
▁deeper
▁x
▁unworthy
▁restr
▁restraint
▁determine
▁impert
▁cap'n
▁happens
▁minds
▁degr
▁festival
▁costum
▁refined
▁ghast
bourne
▁marvellous
▁suspense
▁braz
▁magaz
▁dix
▁chron
▁wages
▁carriages
▁passages
▁fancies
▁scrut
▁cove
▁clung
▁cyril
▁embroidered
ieves
▁thieves
ogn
▁attempted
▁cares
▁eagerness
▁gregg
▁thoughtfully
▁quitted
▁submitted
▁peaceful
▁raw
▁andrew
▁screw
▁bury
▁creation
▁instinctively
▁corporal
▁distort
▁discont
▁wont
▁waking
▁dressing
▁salv
och
ech
lock
▁glances
▁rested
▁raven
▁gran
▁granite
▁followers
▁bend
upt
▁lights
▁shrill
▁nick
▁expedient
▁tie
▁brows
adows
▁rows
▁brute
▁bunch
uesday
▁analy
▁conseil
▁henriette
▁mustn't
▁needn't
▁sinister
▁register
▁positively
▁deceive
▁dishes
▁guards
▁pulling
gen
ena
▁screen
▁ellen
▁fern
▁efficiency
▁hyster
▁transm
▁irritated
▁obeyed
▁pho
▁phoen
▁phoenix
enz
▁dug
▁associated
cest
▁ancest
co
fold
neath
▁underneath
athan
▁meadows
flow
chor
▁anchor
▁seventh
▁righteous
▁apparat
▁apparatus
▁buzz
▁implor
▁conserv
▁fulfil
▁occurrence
▁flushed
▁bobby
▁carpent
▁torrent
▁desirable
▁desirous
▁glimm
▁drifted
▁despise
▁efficient
▁loaf
▁souls
▁heap
▁falter
▁bluff
▁jasper
▁compliments
▁fed
▁maz
▁francisc
▁attentively
▁haul
▁sulph
▁cupboard
▁restored
▁conspir
▁bulk
▁quart
▁superstition
▁assembly
▁accum
yster
▁oyster
▁blade
asured
▁withdrawn
▁offices
▁sober
mple
▁whirl
▁vessels
▁rarely
▁suffrage
▁pattern
▁student
▁rejoice
▁advancing
▁film
▁dict
▁attendants
▁garr
▁garrison
▁winchester
din
dain
▁disdain
▁measured
▁depended
▁exasper
▁ost
▁bough
▁davy
▁solemnly
▁mob
▁moan
▁almight
▁dreary
▁scripture
▁foam
▁team
nam
▁despised
▁tribe
▁teaching
▁sixth
▁unluck
▁glasses
ses
▁verses
▁caes
▁caesar
▁tribes
othing
▁belongs
▁belonging
acing
▁desolate
▁jok
▁bump
▁starting
▁vegetables
▁responded
▁madness
▁repeating
▁negative
▁negot
▁scrutin
eur
▁touching
joining
▁adjoining
▁lightly
▁constance
▁statue
▁plank
▁lively
▁strangely
▁whereas
▁legend
▁pomp
iqu
iences
▁defiance
▁defined
▁intensity
ulpt
▁sculpt
▁imitation
▁quantities
▁repul
▁dramatic
▁yours
▁blessed
▁julie
▁dilig
▁model
▁prior
▁accent
▁lizzie
▁thorpe
uz
▁jacket
▁acquaintances
▁ke
▁keith
▁kit
▁gladly
ugitive
▁elab
▁elabor
rehensible
▁awakened
▁folded
▁deposited
▁supposition
▁energetic
▁prover
▁proverb
▁perver
brew
▁assertion
▁boxes
▁consolation
▁ninth
▁loy
▁possibilities
▁traveling
▁admirable
▁ancestors
▁tonight
▁management
▁agreement
▁cents
▁cash
▁o'er
▁dreadfully
▁stub
▁stubborn
▁tulliver
▁pudding
▁ax
▁egyptian
▁ferv
▁wigg
▁doubled
▁restore
▁swore
gl
▁dougl
▁musket
▁policeman
▁flashed
▁trifle
▁trifling
uctive
▁dispatch
umerable
▁innumerable
▁lynde
▁manuscript
ondrous
▁merr
▁accomm
▁accommod
▁oxford
stead
▁including
▁sexual
▁harp
lets
▁embarrassment
▁beef
▁conquest
▁hercules
▁misfortunes
▁background
▁rand
▁scand
hand
forn
fornia
ifornia
▁california
lm
▁helm
▁fiery
▁agents
▁talents
▁talent
▁potent
▁county
▁justified
▁maidens
▁dame
▁oven
▁elbows
iour
▁behaviour
▁infantry
▁invar
▁harris
liest
▁prel
▁engineer
▁felicity
▁inher
▁inherit
▁globe
▁thee
▁crystal
▁courty
▁courtyard
chard
▁orchard
▁approval
gard
▁trait
▁scandal
▁jos
▁lace
▁professional
▁hoping
ories
▁idle
▁cigarette
inating
▁customary
▁prett
▁requis
▁daring
▁encouragement
▁entertainment
▁settlement
▁phenomena
▁rejoic
greg
▁congreg
▁faculties
▁faculty
▁kinds
▁imposed
▁expectation
▁frenz
▁hamil
▁hamilton
▁doom
ips
▁loyalty
▁expert
▁map
▁mul
▁numbers
▁islands
▁shows
▁correspondence
▁betrayed
▁behavior
▁phenomenon
▁eug
▁eugen
▁drunken
▁unseen
▁priests
▁aroused
retion
▁discretion
▁dipl
plaine
ynplaine
▁gwynplaine
▁diplom
▁tragedy
▁intervals
▁he'd
▁leaders
▁shrub
▁loun
▁whipped
▁stripped
▁striving
▁invari
▁invariably
▁reaction
▁blunt
▁dad
▁daddy
▁separation
▁dais
▁reminded
▁parall
▁parallel
roph
▁birthday
▁bottles
▁oppon
▁oppose
▁declaration
ational
▁rational
▁ador
▁cultivated
▁excur
▁umbrella
mph
▁attachment
▁aged
▁trout
▁scout
pping
▁vicinity
▁dirt
▁endless
▁assembled
▁apt
▁shaped
inter
▁marquis
▁estates
▁estimate
▁ultimate
▁gaily
▁float
▁artistic
▁calculated
▁nour
▁judges
▁japanes
▁japanese
▁aladdin
▁leon
▁leonora
▁spar
naments
▁abundant
▁personality
▁morality
▁personally
▁valiant
▁basin
▁axe
▁flick
▁flies
▁treason
▁feder
▁federal
▁effects
▁she's
▁cape
▁grunt
▁alyosha
▁chauvelin
▁chop
▁kar
lexey
▁dixon
ston
▁vehic
▁bub
▁radiance
▁fascinating
▁angle
▁transferred
▁pitiful
▁messages
▁languages
▁elm
▁eloquence
elly
▁cruelly
▁frenchman
▁vap
▁vice
▁vib
▁vibr
▁suspicions
▁owl
▁plates
▁detest
▁mike
lantic
▁skil
▁skilful
iless
▁jess
▁jam
▁bewildered
▁resentment
▁oars
▁travelling
fell
▁route
▁alert
▁arrested
▁considering
▁justify
▁directions
▁eyel
nel
▁respon
▁response
▁trous
▁trousers
▁tour
▁faintly
▁fugitive
▁coinc
▁disput
▁tuesday
▁betwix
▁lend
▁sprung
▁ming
▁mingled
▁writers
▁bullet
▁parlor
▁obstinate
▁obstr
▁withdrew
▁gree
▁greece
▁awe
▁awfully
ounded
▁facing
▁rice
▁prejudice
▁swimming
he
hov
▁proh
▁prohib
▁comfortably
▁considerably
bitious
▁bigger
▁wilder
▁wilderness
▁sickness
▁shatter
▁robe
borne
▁fert
▁examples
▁arbit
▁stif
▁nan
▁wheels
ma
▁surm
▁sie
▁siege
▁pav
▁intol
▁intolerable
▁intrig
▁moses
▁mast
▁glancing
▁vale
▁prudent
▁vizier
▁frock
▁appreciate
iate
▁release
▁estralla
maid
▁rhy
▁thankful
▁miracles
▁crust
▁career
▁harness
▁confron
▁fitz
▁contented
▁cared
▁guessed
▁attracted
▁attractive
▁drowned
▁supported
elled
▁mechanical
▁scal
▁vine
▁fashioned
▁scholars
▁startling
▁halt
▁fragrant
▁ungr
▁claws
▁rapture
▁discern
▁femin
▁feminine
ata
▁enlarg
▁foe
▁alarmed
▁jung
▁lung
▁feat
▁sweat
▁indignantly
▁indignant
▁basis
▁extremity
▁undertaken
cribed
▁thereupon
▁gn
mn
▁hymn
nie
master
▁healthy
▁chancell
▁defeated
▁defense
▁mansion
ging
omin
▁rein
▁especial
▁recovery
▁heavens
▁swing
▁metaph
▁monaster
▁plaster
▁disaster
boy
▁dant
▁sorts
▁serene
▁split
▁laura
▁identity
▁wondrous
▁upset
▁horrib
▁politics
▁fid
▁crisp
▁gorgeous
▁converse
▁eccles
▁studio
▁studies
▁jerus
▁jerusale
▁jerusalem
▁desperately
▁severely
▁incons
▁incense
▁rings
▁shillings
▁pockets
▁sacrificed
▁sacrifices
▁beating
▁cakes
▁dismal
▁arabella
▁shir
efort
▁villefort
▁summoned
▁telegram
▁calam
ignific
▁insignific
utor
fish
fe
▁strife
▁charlie
▁surrounding
▁architect
▁handle
▁freck
▁horace
▁dod
▁rubbed
rane
ranean
iterranean
rical
yl
▁steamer
▁financ
iled
▁vigil
▁patty
▁chancellor
ics
▁misunderstand
rection
urrection
▁consecr
▁treachery
▁renown
▁barric
▁barricade
▁joyous
▁feathers
▁mediterranean
▁rises
▁passes
▁league
▁feebly
▁surroundings
▁bidding
othed
▁syll
▁barr
dles
▁armies
bility
▁muse
▁museum
▁clasped
▁persuas
▁unwilling
▁housekeeper
▁barren
▁synony
▁practised
▁trim
▁haz
▁mas
▁boats
▁ceiling
crates
▁incur
ollen
▁challen
▁challenge
▁offence
▁seed
▁loaded
uthbert
▁comparatively
▁forbear
appear
▁reappear
▁charlotte
▁drifting
▁perish
amble
▁mah
▁marched
▁monument
▁fiercely
▁disob
utomob
▁dwelling
▁tightly
▁sending
▁shrank
▁shroud
▁yank
▁complicated
▁enable
▁favorable
inth
▁remarkably
▁incidents
aciously
▁nobility
▁blankets
▁illustri
▁highway
▁humbly
▁jungle
ases
▁phrases
anim
▁footsteps
▁contradiction
▁jelly
▁ambitious
▁extending
brow
▁eyebrow
▁dunb
▁dunbar
▁hob
icago
▁chicago
che
▁perch
▁cens
▁destructive
▁bite
▁sque
iated
▁anticipated
▁unconsciously
▁boldly
▁youngest
▁matt
▁liquor
▁tailor
▁scenery
an't
▁shan't
▁shed
lest
▁philosopher
▁biscuit
▁indicate
▁pencr
▁pencroft
▁chopped
▁rushing
sburg
▁petersburg
▁pump
▁plump
▁subord
▁challeng
▁dripping
▁impressed
▁indulgence
reak
break
▁originally
▁relate
▁mirth
▁henceforth
▁confine
▁dine
▁dares
▁acute
▁acad
▁academ
▁acid
▁acres
▁aid
▁alternative
▁wrest
▁matron
▁privileges
▁nervously
ustral
▁mabel
▁invite
▁inval
▁invalid
▁submission
▁remor
▁remorse
▁remed
▁remedy
▁induced
▁diamonds
▁triumphant
ulously
▁vacant
▁shawl
▁bliss
▁argue
▁excursion
▁discouraged
▁dex
▁dexter
▁harold
▁nerves
orpe
▁chines
▁chinese
▁wonderfully
▁rash
▁landlady
▁barrier
▁expressions
▁cautious
▁ingenious
poonful
▁tablespoonful
▁mistakes
▁marks
inder
▁drops
▁workmen
▁destination
seech
▁compact
▁eliza
▁prejudices
▁gifts
▁wiggily
▁wend
▁democracy
▁drain
▁drug
▁fain
▁unlock
▁eh
▁governess
▁ridicule
▁jacqu
▁needle
▁readiness
▁flora
ica
ilet
▁writes
▁pulse
itimate
▁legitimate
▁attacked
▁imaginary
▁pyr
▁retreated
▁animated
▁seam
▁sniff
▁preserv
▁welfare
▁internal
▁paces
▁languid
▁dissip
▁tavern
▁tank
▁petition
▁regarding
igr
▁mysteries
▁shine
▁traces
▁furnace
▁mathematic
▁aristocratic
▁tid
▁tidings
▁channels
▁heels
▁effective
▁carries
chieved
▁marth
▁martha
▁infirm
▁immortal
ki
▁gaunt
▁gambl
▁prominent
▁wig
▁commence
▁commit
▁u
▁ruff
▁interference
▁gross
thorpe
▁subsist
▁mate
▁slim
▁affections
▁percy
▁hann
▁bachelor
▁sins
▁factory
▁garment
▁substitute
ger
▁confed
▁confeder
▁tiger
▁crawled
oman
ronom
tronom
▁tribute
▁gratification
▁conscient
▁repress
▁influences
ichikov
▁revived
▁peop
▁rop
▁peered
▁peoples
▁padd
▁abbey
▁salvation
▁celia
▁illustrious
▁handed
▁instructions
▁tenderly
▁hurriedly
▁echoes
▁confid
▁formid
▁formidable
▁lid
▁winning
▁proceedings
▁transparent
ceptions
▁snuff
▁berth
▁eccent
▁eccentric
thenians
▁warn
▁senate
▁appropriate
▁otto
▁suffice
▁indisc
▁frantic
me
▁highness
▁strikes
▁sermon
▁bruce
▁faithfully
▁ling
▁lingered
auch
asmuch
▁frivol
▁ecclesi
▁sax
▁encourag
▁remarks
giving
▁roots
▁inner
▁gap
▁views
▁deject
ria
ripp
astroph
▁catastroph
rian
▁european
▁whale
▁abuse
▁edwin
▁edges
▁drap
▁blunder
▁differently
▁fig
▁ensued
mit
itious
▁grandeur
▁enclosure
▁buildings
enn
▁spoon
▁saloon
▁salute
▁aram
▁aramis
▁interven
▁empt
▁learnt
▁overt
▁significant
▁hurled
▁tunnel
▁travelled
▁traveller
▁exclamation
quest
▁trench
enched
▁yourselves
▁discontent
urity
▁obscurity
▁christianity
▁spin
▁spinning
▁paraly
▁confronted
▁converted
iggins
▁higgins
▁clutched
▁casual
▁relationship
▁signature
▁attendant
dess
▁goddess
▁skins
▁rost
▁rostov
▁gnaw
▁expecting
▁silvery
▁spotted
▁weariness
▁spray
▁essay
▁rugged
▁augustine
ivities
woman
▁lingering
▁fertile
▁expensive
▁simultaneously
▁vigorously
▁eminent
▁du
▁fairies
▁tech
▁techn
ching
▁whistle
rael
▁robins
insmore
▁dinsmore
▁childish
▁intending
▁rufford
▁crossing
ennox
▁ends
▁trumpet
ettle
▁kettle
▁uneasily
▁swallowed
▁acted
▁phant
▁phantom
▁nom
▁som
▁sanction
unction
▁damned
▁additional
▁clad
▁horizont
▁fears
▁sciences
▁obedient
regard
▁disregard
▁hack
▁supernatural
▁unnatural
▁carly
▁carlyle
▁fascinated
▁illuminated
▁disl
▁dislik
▁curl
▁adher
▁blessing
▁glittering
▁swee
▁expand
▁cats
▁acts
uded
▁murdered
▁collected
▁reluctantly
▁mechanically
▁mischie
▁insensible
▁provinces
▁fan
vid
interest
think
▁husband's
▁obstacles
▁obstin
▁measures
▁mare
▁uly
▁scrub
▁stain
▁voc
iation
▁loom
▁guine
ainty
▁dainty
▁vehement
▁decline
▁carb
arn
nut
picious
ware
▁cluster
▁ripe
▁ridden
▁rue
dyke
▁pointing
▁glowing
▁nun
▁pyram
▁pyramid
▁clam
cer
▁strings
▁stockings
▁prest
▁songs
▁thereby
its
atis
▁dissatis
▁bunny
▁jenny
▁miller
tel
▁dashed
▁bomb
ubert
▁cabinet
▁jehov
▁cass
▁stare
▁strode
▁splendour
▁occasional
▁superintendent
▁unfold
▁chem
▁chanced
▁expens
▁pledge
▁ivan
▁lovers
▁adventures
▁deer
acinth
▁hyacinth
▁stately
▁swam
▁improp
away
▁smother
▁avoided
▁closing
▁splash
▁dagger
▁feverish
▁scro
▁scroo
▁scrooge
▁urge
▁disappro
ifying
▁placid
▁placing
▁perspir
▁naples
▁girl's
▁deadly
▁neglected
▁deeds
▁disguised
▁rescued
▁yielded
▁ardent
▁forthwith
▁fireplace
▁commonplace
▁commonly
▁defarge
▁pasture
eslie
▁leslie
▁latest
▁cyn
▁twins
fresh
▁ascending
▁passionately
▁humph
ai
ji
▁marie
▁admired
▁admiral
▁mules
▁judged
▁apparition
▁thoughtful
▁chestnut
sitation
▁hesitation
▁stake
▁average
▁reef
▁acknowledged
▁sweetness
▁beck
▁damage
▁damn
▁adequ
▁secretly
▁torch
▁buffal
▁cards
▁brace
▁discomfort
▁fundamental
▁wrist
▁confirmed
▁ned
▁acting
icial
dled
▁foster
▁shirley
▁squeez
▁fisher
▁chapel
illery
▁artillery
▁tenth
▁circles
▁fuss
▁device
▁venice
seless
▁devote
▁troublesome
▁chat
▁bat
▁chick
▁nic
▁harmless
▁harmon
rance
▁girdle
▁begins
▁argued
▁whim
▁marianne
ester
▁bitterness
igger
version
▁appall
▁displayed
▁underground
▁devout
▁tobacco
▁lash
uity
▁ingenuity
gu
guard
▁emptied
▁twisted
▁released
▁indulged
▁indulge
▁elephant
bird
▁westward
▁downward
▁schoon
▁existed
▁shells
ased
▁deceased
▁recalled
▁crimes
ilian
▁volumes
▁wealthy
▁pad
▁falls
▁legg
▁decidedly
▁heavenly
▁pretending
▁hearth
▁jude
▁seizing
▁shutter
▁boiled
▁boiling
ading
▁pressing
▁painting
▁discre
▁beckon
▁equip
▁recip
▁equipped
▁douglas
icient
▁tyrant
▁overflow
▁ske
▁skeleton
▁smallest
▁lodged
▁briefly
▁mute
▁constitute
▁alexander
▁grinned
▁harriet
▁hamlet
▁hardship
▁ladyship
▁historical
▁malign
igneur
▁feign
▁woo
▁horrors
▁untr
▁trimm
▁ponies
▁torp
▁senior
▁distribution
▁abol
▁tranquill
▁tranquil
▁discreet
▁conference
▁eyelid
▁communicate
▁hostess
▁bart
▁impertin
▁controver
▁robbed
▁dependent
▁ghastly
▁sulphur
▁deform
▁divide
▁specimens
vas
▁canvas
▁lowest
▁babies
ipping
issipp
▁mississipp
▁mississippi
▁maintained
orous
▁contempor
▁twig
▁pillars
▁thanked
▁gasped
▁altered
aur
▁restaur
joy
thed
▁ethe
ithe
▁settling
▁scant
▁sect
▁tune
▁lodgings
▁gramm
▁reprod
▁muslin
▁ram
▁jews
▁kings
bs
▁methods
▁terrace
▁mity
▁mitya
▁wizard
▁attentive
▁wishing
▁evolution
▁russell
▁depends
▁resemble
▁polish
▁incomprehensible
▁boom
▁booth
itably
evitably
▁climate
ateau
▁chateau
▁awaiting
▁unaccount
▁breeches
▁diseas
▁towns
▁arbitr
rise
▁sunrise
▁wagg
▁ware
▁ecstas
▁carelessly
▁armour
ourt
▁composure
▁caroline
▁carolina
▁ultim
▁ultimately
▁addressing
▁comprehension
▁conducted
ifies
▁inquire
▁willing
▁lodging
▁perpetually
▁edition
▁receip
▁receiver
broken
▁glen
▁investigation
▁involuntary
▁wrinkled
onze
▁bronze
▁omn
▁cargo
▁rug
▁differences
▁verd
▁berries
▁bridle
▁create
▁mol
▁mascul
▁prelim
▁preliminary
▁included
▁ojo
▁pleasing
▁rubbing
▁crad
▁ruddy
▁gratified
▁secl
▁gentleness
▁requisite
▁thorndyke
aternal
▁endured
▁restrict
▁switch
▁cradle
▁calls
▁dazzling
▁continual
▁today
▁perplexity
▁strewn
▁streak
▁plentiful
▁mournful
▁drows
▁defended
▁reconciled
▁henrietta
▁loyal
▁rascal
▁verily
▁organized
▁quad
ada
▁fortress
▁mun
imble
▁worshipped
▁bang
angle
▁bi
▁willingly
▁thinks
▁peg
leg
▁volunte
▁murray
▁verdict
aves
▁tipto
▁communicated
▁banner
▁banquet
▁selection
▁cad
▁plaint
ino
▁peppino
▁influenced
▁tremulous
▁otter
unned
▁rack
▁races
▁bour
lay
▁perceptible
▁gait
occ
▁bucc
▁buccane
▁bug
▁alb
▁theory
icious
ks
lace
▁necklace
▁flint
uated
▁acknowledge
▁stamm
▁stammered
▁yoke
▁entrust
▁butterfly
▁butterflies
▁greeted
▁defiant
▁purely
▁rattle
▁wendy
▁hasty
▁hasten
▁brandy
▁beforehand
▁prosperous
ae
▁pang
▁sinking
▁parent
▁ascent
▁ribbons
▁garret
▁vehicle
▁accidents
▁rocky
▁pavl
▁splendor
▁dynam
stril
strong
▁africa
▁reinforce
emost
▁accused
▁bestowed
▁offering
▁superiority
▁spake
▁kent
▁kentuck
▁indispens
▁clement
upiter
occup
olph
▁erupt
▁suburb
▁bake
▁gab
▁gabri
▁gabriel
▁glare
▁youthful
▁vicar
▁pipes
▁characters
▁pickwick
▁swinging
▁jupiter
▁interrog
▁mice
ylum
▁rustling
▁magnetic
▁sadness
▁ate
▁presume
▁sod
▁trusted
▁tact
▁palaces
▁poly
▁wallace
▁imagin
▁crushed
▁prevented
▁hearted
▁jove
ives
▁attraction
▁bathed
▁boss
▁bacon
▁exclusively
▁painter
▁inconvenience
stretch
▁angels
▁envir
▁champion
▁renewed
▁summons
▁unhe
▁melted
▁phill
▁phillips
▁dispos
▁disposal
▁accordance
thodox
▁melody
▁hark
▁muddy
▁fidel
▁fidelity
▁teasp
▁undertook
▁stimul
▁motions
▁rebellion
▁chuckled
▁defin
▁definition
▁kin
▁peering
udge
▁impulses
▁jersey
▁believer
▁vary
▁tract
▁she'll
▁respectfully
▁wed
▁wednesday
▁traced
▁packed
coq
▁advis
▁hover
▁riches
▁strongest
ronsie
▁phronsie
▁encountered
ts
▁hud
▁bloody
▁lumber
▁jeffrey
▁femal
▁exertion
▁rend
▁overtook
▁whistling
▁lump
▁ign
▁physicians
▁felix
ez
▁costume
▁coolly
▁fishing
aming
▁convenience
▁mous
▁marvelous
▁atlantic
▁excused
▁magistrates
▁ambassador
▁lud
▁forgiveness
▁diminished
▁unequ
▁glided
otes
otesque
▁grotesque
▁marcella
▁pennsy
▁ribbon
▁moisture
▁sentences
▁disciples
▁struggles
▁turb
▁favourable
▁vegetable
▁fashionable
▁nois
▁noiseless
▁applaud
▁maximilian
▁lined
sue
▁issue
alogue
▁daresay
▁tray
▁trag
▁tragic
ager
▁pag
▁pagan
▁sag
cher
▁churchyard
▁churches
▁banished
▁cherry
▁annih
▁lu
▁bru
▁junior
▁announcement
▁turret
▁turf
▁expenses
▁notes
▁types
▁choosing
eon
▁luncheon
▁whistled
▁curtains
▁dreamed
lain
▁bye
▁fore
ye
▁owner
▁courteous
▁glar
▁gasc
▁republican
▁chew
▁tart
▁fuel
▁mason
▁loft
▁aloft
tal
▁total
▁shelf
▁outrage
▁coax
▁whiskers
▁lifeless
▁snap
▁pint
▁noon
▁wiser
▁doth
▁hurrying
▁dined
▁ditch
▁thrice
▁malice
▁lions
▁luke
▁lame
▁industrial
▁formal
▁brutal
▁blanket
▁flu
▁secre
▁secrecy
cliff
▁honourable
▁commod
▁wires
▁congratulate
▁masters
▁master's
▁senseless
▁germ
▁synonym
▁pains
elie
▁lakes
▁snakes
▁lark
▁imposing
enka
ushenka
▁grushenka
▁starved
▁unde
▁ruler
▁emphatically
▁wider
▁maria
▁eventually
▁proportions
▁recl
▁grip
▁recognise
▁nobl
bling
▁firing
▁loves
▁turns
▁bars
▁buddh
▁aristocracy
ander
seigneur
▁monseigneur
ieties
quisitive
▁enlist
▁franklin
▁frankly
▁vinegar
▁multiplied
▁trod
▁avenue
▁elaborate
▁twelf
▁flowing
▁philosophers
▁perched
▁excus
▁sed
▁ster
▁dismissed
▁reverse
▁extravagant
▁prayed
▁reported
▁explo
▁saviour
▁chival
▁lawyers
▁clar
▁clark
mark
▁checked
▁deemed
▁hereafter
▁cuthbert
▁cyl
▁insuff
▁lent
▁consented
▁greed
▁invest
▁rubber
▁attained
▁lick
▁sa
▁saunder
▁eric
athom
▁chronic
unge
▁plunge
▁southward
▁northward
▁homeward
▁rider
▁disturbance
▁pulp
▁exter
▁penalty
▁chichikov
▁flaming
▁clump
water
▁progr
▁contri
▁endowed
▁courtiers
▁knives
▁wo
▁outl
▁hyd
▁wagons
▁delicately
▁companionship
▁predict
▁sor
▁dresses
▁infern
▁dolly
▁sandy
▁unanim
▁gloves
▁bertram
▁labors
▁robes
▁visions
▁sworn
▁swollen
▁trained
▁almighty
ossack
▁cossack
▁coloss
▁chalk
▁confidential
▁sel
▁sequ
▁wipe
▁tuck
▁heroic
▁riot
▁inherited
▁habitual
loc
▁verloc
▁complac
▁stem
▁encamp
▁gild
▁matild
▁growled
▁curled
▁limits
▁ordin
▁ordinarily
▁disconc
lers
▁infancy
▁conclusions
▁barely
▁pushing
▁miriam
▁honorable
▁stag
▁genji
▁outline
▁proceeding
▁smoothed
▁pronounce
▁confer
▁notion
▁cushion
▁engross
▁decis
▁scamp
▁universally
▁parted
▁jehovah
▁gale
▁persian
▁roubles
▁roulet
▁regretted
▁prodigious
▁realm
▁publish
▁concentrated
▁babyl
▁babylon
▁demon
▁redou
▁stepmother
▁obstinacy
▁dantes
▁saul
▁sant
▁samp
craft
frey
▁surmount
▁tumbled
▁stumbled
▁peck
▁pict
▁dump
▁privately
ticoat
▁petticoat
boat
▁petty
▁mischiev
▁annihil
▁odour
▁financial
▁repentance
▁annoyance
▁holm
▁execute
▁bann
▁streams
▁constitu
▁aud
▁audible
▁ud
▁impud
▁giants
▁inheritance
▁nell
▁battery
▁framed
▁destit
▁destitute
▁allah
piece
▁horrified
▁practise
thm
▁rhythm
▁mechanism
power
▁overpower
▁chast
▁groups
don
uted
▁neut
▁neutral
▁echoed
▁assumption
abby
▁shabby
▁roads
▁alexandrovitch
▁twitch
ivial
▁trivial
▁obliv
▁farmers
▁zad
▁doctrines
▁mirac
▁traveled
▁protested
▁protestant
ovel
▁biggest
▁bridges
▁breach
▁achieve
▁landed
ession
▁session
▁sid
▁confessed
▁stooped
▁rainb
▁rainbow
▁climbing
▁preceding
▁calf
▁companies
▁decorated
▁excessive
▁massive
▁inspiration
▁nineteenth
▁odious
▁ingred
▁ingredient
▁curve
▁indispensable
▁twelfth
▁resource
▁planted
▁ripp
▁thomp
▁thompson
▁melod
▁imperative
▁hopkins
▁pegg
▁peer
▁roger
▁contemplation
▁fragrance
▁raymond
▁entertained
▁consisted
▁haughty
▁clapped
▁competition
arian
▁shorter
▁commend
▁merci
unci
ced
forced
▁clatter
▁earthqu
▁earthquake
▁wiped
▁fishermen
▁attire
▁bagg
▁amend
▁mend
▁selected
▁lur
▁lurk
▁executed
▁terrific
▁insufficient
▁hammer
▁fluid
▁keeper
▁epoch
▁inches
▁specimen
itten
▁wri
▁thicket
▁interpretation
▁monoton
▁monotonous
▁intoxic
▁israel
▁chor
▁chorus
uspicious
▁prevailed
▁discord
▁superficial
▁magazine
▁represents
▁strand
▁curate
▁searching
▁catching
▁theatre
▁spared
▁relating
▁relics
▁galley
▁compromise
athen
▁executive
▁bonds
▁killing
▁training
▁merciless
▁divor
▁divorce
▁grieve
▁wist
ombre
▁sombre
▁wre
▁wreath
▁fascination
▁disobey
iture
enditure
▁expenditure
▁demands
▁individuals
▁roughly
▁hudson
▁shared
▁irritation
▁painfully
▁monop
▁frail
▁lar
▁anton
▁decisive
▁coincidence
we
▁rans
▁successfully
▁unhappiness
eliness
▁os
▁osborne
▁fet
▁waverley
▁repor
▁reporter
▁softened
▁implied
▁punch
▁chairs
▁whirling
▁whirled
wich
▁abbe
▁abomin
▁throbb
▁paying
▁empress
▁colony
▁colonies
fl
▁amus
▁amusing
▁lennox
▁baggage
▁tranquillity
▁lob
▁holmes
▁shapes
▁weighed
fred
▁kindred
▁signed
▁cleared
▁welcomed
agraph
▁paragraph
▁cambridge
▁sternly
▁novelty
▁regiments
▁sparrow
▁impet
▁impetuous
▁illustration
▁motives
ats
atical
ashka
ukashka
▁considerations
achus
achusett
▁massachusett
▁viv
▁vag
▁eminence
▁fathom
▁conservative
▁subsequent
▁barbarous
aneous
▁carroll
▁inevitable
▁exists
sp
▁gosp
▁gospel
ingham
▁tortured
▁pictured
▁displeasure
▁lobster
▁recoil
▁mutton
▁fritz
vant
advant
▁disadvant
▁equival
▁forego
▁knit
▁blanch
▁honors
▁precautions
▁precaution
▁liable
▁testament
fare
▁vigour
cle
▁dup
▁proclam
▁durrance
▁tack
▁crab
▁searched
ula
▁bravely
▁namely
▁bum
▁bumble
▁deliberate
▁logical
combe
▁morn
net
▁sheet
▁lifet
▁lifetime
▁ledge
▁jewell
▁revolutionary
▁premises
▁burd
▁exterior
▁joining
▁academy
▁random
▁hinted
▁tink
▁sprinkle
▁females
▁tastes
▁oz
▁missionary
▁elevation
▁constructed
cloth
▁creator
▁gem
▁freight
▁fret
▁pert
try
olutions
▁nourish
▁teachers
▁inclinations
▁filling
▁ego
▁fi
▁fiend
▁perturb
▁possessions
▁humility
▁santa
▁stur
▁sturdy
iph
▁caliph
berries
▁imagining
▁miraculous
▁haunted
▁stamped
▁snatched
▁covering
▁penetrated
aylor
▁taylor
ushroom
otten
▁cripp
▁benefact
▁hundreds
▁currents
▁cliffs
▁reverend
▁existing
▁sailing
▁sails
▁chant
▁lil
▁meek
▁sleigh
▁husk
awning
▁tuf
▁ropes
▁sarc
▁whirlw
▁whirlwind
▁pleases
▁diame
▁cylinder
▁nostril
▁tribun
▁lucian
▁buffalo
▁guy
▁apprehended
▁apprehensions
▁pearls
▁remov
▁freckles
▁hart
▁doris
sis
▁analysis
▁hypothesis
▁cris
▁crisis
ris
▁fab
▁fabric
cent
▁patent
aware
▁raff
▁lilies
▁laden
▁natives
▁data
▁duel
▁enquir
▁ungrate
▁we'd
throp
▁beauties
long
▁majestic
▁respectful
▁merciful
▁puss
▁godfrey
▁coop
▁urgent
▁duly
▁wife's
▁refusal
▁constern
ball
▁contribute
▁attribute
▁restaurant
▁fry
▁voluntary
▁unex
ias
iary
▁starlight
▁oxen
▁dot
▁betwixt
▁illusion
▁exclusion
auchamp
▁speaker
▁cushions
▁knitting
▁creeping
ibilities
▁rubbish
irect
▁indirect
▁attentions
▁infall
▁insignificant
▁balc
▁balcony
theus
▁sweethe
▁sweetheart
▁anthe
▁anthea
▁consists
▁spy
▁divinity
▁lawrence
▁merriment
▁merrick
▁click
▁vanqu
▁vanquished
▁persecution
▁contriv
▁harrington
urance
▁recur
▁disappearance
▁artists
▁exchanged
omwell
▁cromwell
▁regularly
▁solely
▁litter
▁psychology
bishop
▁archbishop
oki
▁pok
ukoki
▁severity
▁picking
▁locks
swers
▁answers
▁milburgh
▁diameter
▁mammy
▁cyrus
uminous
▁luminous
▁blake
▁navy
mmy
ys
▁abys
▁metaphys
▁goods
▁symptoms
▁gets
▁junction
▁fist
▁unmist
▁unmistak
▁unchang
ama
▁charley
▁eastward
▁inward
▁headlong
▁undergo
▁plato
▁imprisonment
▁insolent
onathan
▁jonathan
▁nathan
▁latch
▁onward
▁scrib
▁scour
▁errors
▁preservation
▁rotten
▁ethel
▁sticks
utomobile
▁necessities
ocious
▁ferocious
▁nails
▁grows
▁advers
▁adversary
▁horsemen
▁deepest
▁insurrection
▁devices
▁poets
▁propriety
▁magnificence
▁olive
▁nobles
▁arrows
▁spaniards
▁helmet
▁packet
lessly
▁pretex
▁flowed
ossibility
▁impossibility
▁spending
▁ranks
▁vapour
▁witnesses
▁calamity
▁rapidity
▁ungrateful
▁toler
▁harder
▁charges
▁clum
▁clumsy
ounced
▁barbara
▁feud
▁cheval
▁chevalier
▁portions
▁utility
▁cha
▁lee
▁socrates
▁ravine
▁survived
▁ornaments
▁barber
▁text
▁curt
erville
uv
▁associations
uzov
utuzov
▁antiquity
erous
▁treacherous
▁immaterial
▁exile
▁manager
▁continuous
▁unique
▁stunned
▁economy
▁bleed
roll
▁identical
houn
▁calhoun
▁coun
▁nights
▁gidd
▁activities
▁sinc
▁sincerely
▁alien
▁frighten
▁eloquent
▁lun
▁buckingham
▁opera
▁operator
▁imprud
▁affl
▁affliction
▁fiction
▁fol
▁foli
▁foliage
▁fouquet
▁faire
▁fairest
▁annoyed
▁yawn
▁pont
▁pouring
▁wherein
▁nobleman
▁interruption
▁overtake
▁maker
▁sincer
▁sincerity
▁chickens
▁peb
▁pebbles
▁resting
▁annual
▁inviting
▁thwart
▁blows
▁blowing
▁brains
▁moust
▁moustache
wr
writing
▁dragging
▁praises
▁doc
▁document
▁documents
▁dipped
▁dizz
▁perished
▁engines
▁adding
▁prophe
▁prophecy
time
▁dolls
▁lang
▁lic
▁lukashka
▁delir
▁delusion
▁recourse
▁prostrate
▁gibb
▁despond
odor
yodor
▁fyodor
▁fyodorovitch
▁deput
olate
ocolate
▁betro
▁betrothed
▁morcer
▁morcerf
▁morris
▁politely
▁confided
▁uncover
erving
▁abide
▁stretches
▁javer
▁javert
ivable
ctic
▁beds
▁rivers
▁drama
▁dora
▁promote
▁hannah
▁grasped
tally
▁digging
▁mantle
▁dissatisfied
berg
▁arkady
▁arkadyev
▁ransom
▁montg
▁montgom
▁montgomery
▁correction
▁advances
▁injustice
▁naughty
▁enthusiast
anda
iana
▁sab
▁mercury
▁contains
▁transact
▁libert
▁muffled
▁liking
▁enjoying
▁greeting
▁eth
▁entreated
▁airship
▁neighbours
▁vices
▁blessings
raged
mitri
▁dmitri
▁hue
▁revenue
▁inexpress
▁inexplic
▁implic
▁filth
▁depression
▁conquered
▁darted
▁crooked
▁columbia
▁realised
itations
▁forests
▁grounds
▁convuls
▁tasted
▁ecclesiast
▁ecclesiastical
▁involve
▁feels
▁usurp
▁patric
▁baptism
▁circulation
▁circus
▁mow
castle
▁sorrowful
▁vass
▁injure
▁chaos
▁supple
▁exhort
heard
▁alph
▁alphab
▁alphabet
ustria
▁brings
▁spaces
▁spenc
▁ej
▁ejac
▁ejaculated
jah
▁bravery
▁stables
▁enchanted
ider
▁panic
▁purity
▁vegetation
▁revelation
▁zadig
▁elph
▁orph
▁soph
▁pretence
▁agriculture
cessantly
▁millionaire
▁tough
▁syd
▁sydney
▁lecoq
▁simplest
▁enraged
▁magnet
selfish
▁unselfish
▁unbroken
▁bog
aux
▁carn
▁available
▁quivering
▁treaty
▁strokes
▁shady
pire
▁slack
▁transgress
▁countless
▁counted
▁victorious
▁victoria
▁plains
▁lady's
▁exposure
▁ounce
▁alternately
▁wounds
▁parr
▁parrot
▁conventional
▁prettiest
▁vinc
▁vincent
ties
▁kutuzov
▁bount
▁console
▁inexper
▁luxuries
▁mound
hound
▁redeem
▁salary
▁flask
▁sobs
▁rot
▁sensibility
vory
▁gust
▁redoubled
▁missed
▁amazed
far
▁whar
▁preference
▁carav
zan
▁tarzan
▁pennsyl
▁pennsylvan
▁pennsylvania
▁imitate
▁concess
▁foundation
▁heavier
▁vaguely
hor
▁abhor
iah
▁proprietor
▁include
▁negroes
inda
▁trumpets
▁screamed
▁dreaded
▁sally
▁si
▁laure
▁manufacture
▁sculpture
▁wildly
▁bells
▁balls
rimony
▁matrimony
▁pigeon
▁francisco
▁remo
▁removing
onesome
▁lonesome
▁wanting
▁baked
irk
▁lever
▁leop
▁whiteness
▁seventeenth
▁diet
▁civility
▁superstitious
istinct
▁indistinct
▁colbert
▁stew
▁chocolate
soever
▁rese
▁perilous
▁purit
▁remn
▁diversion
▁clutching
▁confinement
▁slide
▁hospitable
▁humming
▁bags
▁precept
▁milan
▁glee
rie
▁elaps
▁pierced
▁warfare
▁vind
▁vow
▁vamp
▁pamp
▁chip
▁mall
▁mull
▁midd
▁sung
▁guar
▁guarant
▁lew
▁lewis
▁kl
▁fult
▁fulton
▁passive
▁persisted
▁brother's
▁fifteenth
▁compound
▁compens
▁compart
▁sandford
ingale
▁nightingale
▁cling
▁clinging
▁begging
▁laying
oneliness
▁loneliness
▁proudly
▁principally
▁impelled
▁embracing
▁memorable
▁tint
▁vexed
▁vexation
▁elderly
▁winterbourne
▁parker
▁brist
iston
▁conniston
▁glist
▁partial
▁infinitely
▁ounc
▁toby
oughby
▁landing
▁inspection
▁pork
▁curs
▁cursed
▁carbon
▁mushroom
▁simpson
istry
▁um
▁ticket
▁ast
▁rosamond
▁dimly
▁briskly
▁unlucky
gans
▁organs
▁repro
▁replies
▁seemingly
ifice
▁precipice
▁magnitude
▁angles
▁alfred
▁mars
▁boy's
▁glimpses
▁momentary
▁burton
▁fut
▁brightly
▁jenks
▁nought
ieu
▁adieu
ie's
▁adap
▁adapted
▁naval
▁situations
▁chemical
▁typical
▁arts
▁armor
▁trades
▁almah
▁cruc
▁appreciation
▁noisy
▁here's
anning
▁channing
usions
▁scared
▁martian
any
▁moham
▁mohamm
▁exal
▁exalted
▁moor
▁mole
▁moth
▁sealed
▁duncan
▁courtes
▁courtesy
▁unexpectedly
▁antip
▁miner
▁mexico
▁mexican
▁dispers
▁claw
o's
▁seats
▁enlightened
▁keys
▁dimensions
▁pretensions
▁producing
▁revolutions
▁urb
▁mortals
tery
bray
▁emer
▁emerald
▁proving
▁impass
ocity
▁gradual
▁precision
aday
▁nowaday
▁hebrew
quiet
▁sembl
▁ferdin
▁smashed
▁skirm
ometer
▁jug
▁eyebrows
▁agricultural
▁blink
▁opponent
▁mack
bourg
▁impost
▁disinterest
▁eames
icate
▁steadf
▁steadfast
▁despot
▁canoe
oor
ooroo
▁sanctuary
▁blaze
▁blazing
▁adel
ycle
▁sham
▁thirsty
inald
▁reginald
▁sixteenth
▁profitable
▁repet
▁repetition
ancourt
▁valancourt
▁baff
▁butler
▁lungs
▁swords
▁shrunk
▁distances
▁gravel
▁lime
▁territor
▁pitiless
▁popul
▁populace
▁denis
▁denial
▁martial
▁cordially
▁opponents
▁comte
▁squad
▁squadron
▁ruby
▁unpre
▁unaccustom
▁snapping
▁obstruct
gone
▁humphrey
▁loveliness
▁muzz
▁astronom
▁cel
▁celest
▁celestial
▁code
▁gretel
▁shades
osis
▁superfl
▁superfluous
▁wald
▁sprinkled
ardier
▁thenardier
▁headed
▁governed
▁physi
▁physically
▁ped
parable
▁pierce
▁environ
▁alexandrovna
▁breadth
▁carth
▁beth
areth
▁appare
▁corinth
▁lugg
▁luggage
▁courses
▁insolence
▁elphick
▁benevolence
▁eury
▁discrim
▁robinson
▁exhaustion
▁pupp
▁laurel
sitate
▁hesitate
olooroo
▁boolooroo
▁excellence
▁afforded
▁hurst
▁hurstwood
print
▁clue
▁twinkling
▁salmon
▁nodding
▁florid
▁explanations
▁badger
▁dome
▁statues
▁extinct
▁muscle
▁merrily
▁oppression
ustralia
rial
▁burial
▁bure
▁bureau
▁valet
wealth
▁poems
▁neatly
▁horns
▁deleg
▁keenly
▁mord
▁mordaunt
▁locality
▁crumbs
▁sports
▁trop
▁penetrate
▁penetrating
▁rifles
▁hopped
▁treasures
▁lounge
▁accuse
▁explosion
▁deplor
▁verge
▁mentally
▁cul
▁scottish
'n't
▁associates
▁routine
keeper
▁purchased
▁slopes
▁rattled
▁rattling
▁livid
▁ens
▁holiness
▁sterling
thouse
▁eighteenth
▁deserving
▁preserving
▁malady
utomatic
▁flourish
▁dreaming
▁frig
▁frances
▁nathaniel
▁rigg
▁rup
▁maud
▁mockery
▁slippery
▁bery
▁beryl
▁baz
azed
mates
▁gotten
▁pavlovna
▁stretching
▁sentimental
▁marshal
▁horribly
▁resolutely
thos
▁confidently
▁trapp
▁cabb
▁workman
▁appreciated
▁daybreak
▁void
▁voluntarily
▁temporarily
▁properties
▁attendance
▁trifles
▁guich
idious
▁pious
▁paws
▁poster
▁hog
▁technical
▁beseech
▁barrister
▁accurate
▁accuracy
▁accurately
▁fragment
▁elevated
▁gould
▁pupils
▁torrents
▁triumphantly
▁porridge
▁abilities
abilities
▁reports
▁inconsist
angled
▁fishes
escent
▁abyss
▁finds
▁regards
▁pinch
affold
▁scaffold
▁traff
▁traffic
▁utterance
▁overcoat
▁unreasonable
raved
lesome
▁jaw
▁ivanovna
▁crev
▁av
▁exerted
verted
▁futile
▁banners
▁factories
▁interchang
▁stealing
▁fidd
▁obligation
▁societies
escrib
▁indescrib
cribe
▁indescribable
▁witches
▁wits
▁hazel
▁obliter
▁rags
▁printing
▁merlin
▁insane
▁heroes
folk
wall
wig
▁kenwig
▁epis
▁episode
▁disclosed
question
▁unquestion
▁florent
▁soothing
vis
▁jarvis
▁rumour
▁malicious
▁warn't
▁roaring
▁burdens
▁solicitude
▁largely
▁based
▁basil
▁virgil
ropol
▁metropol
▁vrain
sieged
▁kenne
▁kenneth
▁troy
anna
▁tyrann
▁clown
e's
▁injuries
▁astray
▁coil
iles
▁prices
▁gill
▁inventor
▁invented
▁discussed
▁dungeon
▁identified
▁resignation
▁benevolent
▁superb
▁emergency
▁emerged
▁stepping
▁overheard
ios
▁semi
▁curved
▁staying
▁leads
▁tells
▁busily
ubb
▁ignomin
▁conspiracy
▁subsided
▁modesty
▁daisy
roar
▁uproar
▁extension
alm
▁rouletab
▁rouletabille
▁cultivation
▁reins
▁condens
▁texture
▁wilm
▁velocity
last
▁everlast
▁sobbed
▁sobbing
frican
an's
▁tube
▁tolerably
▁miserably
▁poles
▁antique
▁perpend
▁perpendicular
▁ferdinand
▁camel
▁mortim
▁excluded
▁starving
▁klaus
▁earnestness
▁clarence
held
▁ceaseless
rupted
▁bennet
▁chart
▁controversy
ipsy
▁gipsy
▁waken
▁strove
▁partners
▁partially
▁odor
▁sovereignty
▁wy
▁englishmen
▁masculine
▁tracks
▁wrigg
ustra
athustra
arathustra
▁zarathustra
▁width
restrial
▁ringing
▁rejoicing
▁cooking
▁electricity
▁particip
▁municip
▁confederate
▁burrow
▁overboard
▁spectator
▁maur
▁maurice
▁hagg
▁haggard
▁agg
▁michel
▁deference
▁ministers
▁exclusive
pool
▁liverpool
▁tops
▁inference
▁alongside
▁suppressed
▁tooth
▁pans
▁paw
▁cage
▁cutter
umberland
▁dispose
▁removal
ocation
▁pavlovitch
▁coin
▁grinning
▁bred
▁hermit
▁racing
▁crick
▁crude
rude
ertrude
▁gertrude
▁gord
▁na
▁commissioner
▁personage
▁accounts
apart
▁bonapart
▁grap
▁grapes
▁groc
ads
▁nuts
▁boh
▁bohem
▁conferred
▁snar
▁reluctance
▁reluctant
▁cant
▁reflections
▁license
▁stifled
▁berg
uniary
▁blamed
peak
▁pleasantly
▁davis
▁plight
▁gwend
▁gwendolen
ways
▁materials
▁divers
▁photop
▁photoplay
▁spots
▁claims
inster
▁associate
▁embarrassed
▁assisted
▁choked
▁lorry
▁rosal
▁endurance
▁schemes
▁child's
▁audacity
▁chooses
ulent
▁cogn
▁fruits
▁bills
▁expressive
▁mim
▁inconce
▁inconceivable
▁joyce
ridges
oux
▁compress
▁cec
▁alc
▁alp
▁fitzp
▁fitzpiers
▁hump
ha
▁paras
▁armstrong
▁cows
forward
▁trotted
▁arkadyevitch
▁refine
▁guarded
▁turkish
▁claimed
▁aggress
▁isabella
▁garland
▁morland
▁shah
▁providing
▁larry
▁presents
▁livery
▁disadvantage
▁belg
▁revolt
▁communities
▁communion
▁unpr
▁mumm
child
wright
▁loveliest
▁perchance
▁stress
▁undress
thest
arin
▁mazarin
▁mathematical
▁barrack
amel
▁interfered
▁bedside
▁invaded
▁degraded
▁dul
▁facility
▁vanish
▁aught
▁reassured
▁elastic
▁dispens
▁sill
▁knob
▁assigned
▁imaginative
▁owed
▁yach
▁yer
▁ominous
▁omitted
▁industrious
▁invas
▁invasion
▁environment
lessness
▁everlasting
thetic
▁susceptible
▁dinners
▁cater
▁caterp
▁caterpill
oir
▁sho
▁veter
▁drawer
▁molly
▁magnanim
▁deliverance
▁whereby
▁presby
▁subordinate
▁excessively
▁sioux
▁dand
▁commotion
▁patted
▁adorned
▁ferry
▁abject
▁cowboy
▁orphan
▁sciss
▁scissors
▁terrors
▁suggestions
incial
▁provincial
▁bathing
lorn
▁tangled
▁morsel
▁preoccup
▁phase
sip
ssip
▁gossip
yrinth
▁labyrinth
▁leopold
▁paste
▁plane
▁brun
▁programm
▁monastery
▁boff
▁boffin
▁relent
▁dissolved
▁gleaming
▁acquies
▁earthly
▁damon
▁retreating
▁sidney
▁elegance
▁international
▁mines
▁ministry
▁vicious
▁cornwall
▁replace
▁wholesome
olley
▁poll
▁perfume
▁deme
▁demean
▁demeanour
▁pathetic
▁unimp
▁dusty
▁slice
rice
fallen
leby
▁nickleby
▁unity
▁elmwood
▁prowess
▁colours
▁catastrophe
▁pew
▁berwin
▁warmly
alled
▁apert
▁aperture
▁cert
▁certific
▁gaw
▁gawaine
▁readers
▁denom
▁darkened
cile
▁advertisement
▁prescribed
▁restoration
▁luxurious
▁equipment
▁compartment
▁whatsoever
uart
▁stuart
uing
▁kissing
▁panting
ta
▁benches
▁shocked
▁ded
▁conveyed
▁blacksmith
▁footprint
▁monica
▁mountjoy
▁aspir
▁bleak
▁rebel
▁pel
▁pic
▁frivolous
▁entry
▁staggered
▁piled
▁piles
▁mayor
cuniary
▁pecuniary
▁leaping
▁sump
▁joyful
▁handful
▁eminently
▁lustre
▁shattered
▁protected
▁bears
icable
▁relatives
▁delirium
▁renounce
▁chopin
▁joyfully
▁adjac
▁adjacent
▁snail
▁mung
▁endeavoured
▁explore
▁tropical
▁enquired
▁deceit
▁mischievous
▁attempts
itors
ita
▁vit
▁dunde
▁sorcer
▁proclamation
▁posterity
▁commiss
norm
▁abnorm
▁fraud
sky
▁glistening
▁accost
▁bast
▁stillness
▁fantine
▁accidentally
▁rugg
▁jerome
▁pitt
urst
hurst
▁primary
▁waz
▁wazir
▁ecl
▁peach
▁babe
▁fleece
▁uncertainty
▁rights
▁suic
▁suicide
▁hubert
▁dazed
▁partic
▁particles
▁transmitted
onn
▁referring
▁expectations
aria
engaria
▁berengaria
▁canada
▁hoist
uber
▁squeeze
▁muzzle
▁whispering
icycle
▁baking
▁ba
▁bass
▁drill
▁footman
▁tents
▁resurrection
▁erected
▁elected
▁bicycle
▁heir
▁encir
▁encircl
▁burgund
▁kitten
▁baza
▁bazaar
▁wisest
▁vile
▁exaggerated
li
▁operate
uate
▁debate
ua
aitor
▁traitor
groom
▁bridegroom
▁trigger
▁truck
aska
▁cask
▁popp
▁roared
▁finer
▁bout
▁overwhelmed
▁karl
▁wield
▁swoon
▁arises
▁crawling
▁maxwell
▁keeps
▁nem
▁outstretch
▁gracefully
▁generously
▁judging
▁gyp
▁reel
▁nast
▁bleeding
▁intensely
▁dorothe
▁lords
▁groaned
▁robbers
▁improvements
▁adequate
▁birch
▁degen
▁clamber
▁selfishness
▁wickedness
▁cavalc
osc
▁transc
▁transcend
▁offend
▁aristot
rich
▁jewish
▁smugg
▁abominable
▁spont
▁spontaneous
▁indeb
▁indebted
▁magd
▁magdal
▁magdalen
▁conceptions
▁faults
▁balanced
▁presbyter
▁mattress
▁apology
ken
▁repay
▁doomed
burst
▁flashing
▁medicines
▁lizard
▁involves
▁strata
▁teaspoonful
▁picn
▁biograph
▁incom
▁kins
▁lads
▁candidate
▁persistent
▁arctic
▁arrog
▁switz
vy
▁strained
▁corpore
▁constrained
▁multitudes
vidrig
▁emphatic
▁vouch
▁envious
▁cit
▁ferocity
▁evidences
▁margin
▁baronet
▁lava
▁serpents
con
afe
▁dominion
▁planch
▁planchet
'er
▁ne'er
▁accumulated
fax
▁guarantee
ghai
▁glaciers
abouts
rogen
▁equivalent
▁ample
▁terry
▁thump
tered
▁noblest
▁capit
▁spraw
▁consternation
▁woven
▁aven
▁avenge
▁gau
▁eleventh
▁shutting
▁interrupting
▁nasty
▁stormy
▁humiliation
rift
▁comprehended
▁slugg
▁thickness
▁greatness
▁spoonful
▁importun
▁signifies
▁determining
gate
▁petrov
▁cob
itous
▁milit
▁tempting
▁righteousness
inguished
▁extinguished
▁letty
▁philosophical
▁schooner
▁predomin
on's
▁impl
▁springs
▁beatrice
▁romola
▁witnessed
▁chivalry
▁unsatis
dale
▁phine
▁phineas
▁costly
▁scept
ceptibly
▁sic
▁sicily
▁sage
▁saith
▁immortality
quiring
▁seeming
▁studying
iazz
▁piazz
uition
▁intuition
▁pleasures
▁poys
▁errant
▁harrison
down
▁herd
dained
▁chaise
▁misgiving
▁tearing
atrical
▁mukoki
▁folds
▁ecstasy
▁ty
▁jem
▁benj
▁benjam
beam
▁spacious
▁hire
▁submerg
▁ferg
▁fergus
▁submiss
▁arbitrary
▁tiss
▁tissue
▁secluded
▁slipping
▁slippers
▁varieties
▁steven
▁dwellings
▁foremost
▁melbury
▁shouts
▁travers
▁chains
ots
lo
▁sweeping
▁washing
▁chamberlain
▁lowered
▁questioned
▁confounded
▁elephants
▁orient
▁matilda
▁fulfilled
▁impressive
▁patr
▁retr
cients
▁queen's
▁devoid
▁fland
▁flanders
▁infernal
ruit
▁recruit
▁lyd
▁holds
oof
▁thereof
▁sparkled
▁paradox
▁bourge
▁bourgeois
▁kil
▁escaping
▁pigs
▁barred
▁cod
▁finn
▁darn
yce
▁bryce
▁produces
▁hawkins
▁envoy
▁frenzy
▁damasc
▁lain
▁hostility
▁unsucc
▁unsuccess
▁unspeak
▁presumption
▁councill
▁talb
▁talbot
▁arb
▁aris
▁arisen
▁retained
▁bullets
▁resolutions
▁shark
▁encroach
▁oppressive
▁oppressed
▁broom
▁brink
▁broth
▁evans
▁chased
▁apoll
▁ape
▁resume
▁aloof
▁sacr
▁sacrament
▁heav'n
▁tru
▁logic
▁charms
▁reflex
▁crater
▁mirrors
▁actors
▁beings
▁perv
▁bertucc
▁openly
▁monotony
▁bower
▁daughter's
y's
stood
▁misunderstood
▁russians
▁digest
▁spider
▁bewild
▁stooping
▁infam
▁beam
unition
munition
▁ammunition
▁columns
▁dishonest
▁dishonour
▁clamour
eries
▁galleries
▁energies
▁passenger
▁refreshment
▁spreading
▁helping
▁fanciful
▁diligence
▁highland
▁starve
▁solve
▁solved
▁tutor
thentic
▁feeding
▁rouse
▁hateful
▁bard
▁packard
lymp
▁olymp
▁emigr
▁skies
▁persuasion
▁bucket
▁titles
▁greyhound
▁grimly
▁depr
▁deprive
▁ramp
▁meditation
▁breez
▁firmness
▁brightness
hear
▁jumping
▁cork
▁humb
▁domain
▁rapt
▁delivery
▁usher
▁culpr
▁flourishing
▁reduce
▁dividing
▁dearly
udoff
ludoff
hludoff
khludoff
▁nekhludoff
▁pamph
▁abolition
▁whites
▁thanksgiving
▁outlines
▁outlaw
▁champag
▁champagne
▁depre
▁depict
▁treating
▁enchantment
▁hatter
▁hatteras
▁boughs
▁applies
▁messengers
▁perspiration
▁speculation
▁tebr
▁tebrick
phem
▁refusing
▁clearing
▁declaring
▁backwards
▁stealthily
▁subsequently
▁arc
▁arising
▁advertising
▁fatigued
▁garb
▁withered
▁sedley
itative
▁saxon
▁nib
ieces
▁successive
▁strive
ulture
▁gateway
▁marching
▁chaplain
▁gloomily
▁luckily
▁oriental
▁guid
▁guidance
▁overtaken
▁weaken
▁apprent
▁neighboring
▁curves
▁clapping
▁mortification
▁asylum
▁screech
izzard
▁sylvie
▁haired
▁chim
▁piercing
▁preceded
▁adams
▁ruled
▁rulers
▁nemo
▁undist
▁undisturb
ologist
▁afflicted
▁reckoned
▁detected
▁wan
▁famine
▁haze
etically
▁complained
▁remembering
ien
▁serf
▁sift
▁sall
▁engagements
▁jefferson
▁envied
agers
▁villagers
▁hag
▁pines
▁deliberation
▁formation
▁forming
▁plantation
▁entangled
▁injunction
▁distressed
▁spoiled
▁resigned
▁exemp
adian
▁canadian
▁flavor
▁sap
▁incor
▁regulations
▁voyages
▁stages
▁cottages
▁stature
▁seclusion
▁postp
▁records
▁crimin
▁criminals
oz
▁tri
▁bustle
▁clenched
▁shadowy
▁wester
akem
▁wakem
▁stragg
▁strat
▁occupations
▁therewith
▁handwriting
▁wilf
▁negl
▁neglig
▁pend
▁robbery
▁ohio
▁witchcraft
▁laud
▁dow
▁tries
▁aristotle
▁hipp
▁bows
▁og
▁consulted
▁slices
▁baffled
▁strap
▁schools
▁semblance
▁buoy
▁preval
uph
▁refinement
▁kneeling
▁genial
▁genie
▁yea
▁stony
thony
rat
▁ingrat
lestick
▁texas
▁perspect
▁visibly
▁propag
▁penit
ya
▁sonya
▁shovel
▁censure
▁anxieties
▁tapped
▁tatter
▁curls
▁expressing
▁monuments
▁monton
▁montoni
▁linton
▁shuddered
▁vitality
▁wegg
▁earning
▁planning
▁pa
▁paup
upp
▁draft
▁graces
▁votes
▁doctor's
▁coldly
▁gascoy
▁saluted
▁offensive
▁lavish
▁objections
ammed
ols
▁tools
annie
edges
▁marrying
▁enact
▁forefather
▁brim
▁explod
▁embod
▁jur
▁penrod
nikov
▁brill
▁preposter
▁wasted
▁huddled
▁resembled
▁renders
▁perseverance
▁writhing
▁attending
▁beggars
▁colleagues
▁harrow
▁furrow
▁leapt
ghthouse
▁lighthouse
▁anglo
▁carleton
▁receipt
▁rhyme
▁honestly
▁nik
▁ship's
▁iceland
▁contemplated
▁hunters
▁customs
▁commands
▁aggrav
stones
ste
▁barry
ufton
▁lufton
▁lance
▁settlers
quois
roquois
▁privileged
▁rampart
▁apiece
▁candlestick
▁forbidd
▁enemy's
▁pitcher
▁greedy
otting
▁mott
▁munch
▁foes
▁patches
▁wharf
▁croc
▁crocod
▁cramp
▁crut
▁divisions
▁comprehensive
▁rejected
▁nicely
▁demonstration
▁acceptance
▁balin
▁violin
▁lor
▁strolled
▁pitied
▁punctual
▁subter
▁subterranean
▁nether
▁teres
▁teresa
▁terrestrial
▁util
▁excuses
▁patriarch
▁tails
▁proposals
▁bridget
▁commanding
▁continues
▁vagab
▁vagabond
▁soap
▁kh
▁benjamin
thin
▁elin
▁elinor
▁nimble
▁awhile
▁hounds
▁donald
▁stitch
▁pillows
▁hearty
▁denz
▁denzil
▁abstain
▁wireless
▁dissol
▁allowance
onial
ential
▁consistent
yon
▁canyon
▁semyon
▁blur
▁injur
urable
▁ebb
▁survive
▁sandwich
▁morb
▁morbid
▁touches
▁sangu
▁retir
▁homer
▁unint
▁walks
▁loos
▁loosened
▁rosa
▁repast
▁dazzled
▁nett
▁enforced
▁thereafter
stein
agin
▁timidly
▁appeals
▁nostrils
oultry
▁vigilance
pole
▁supplic
▁rehear
▁countrymen
▁taxes
▁smash
▁bail
▁carthage
▁florentines
▁insens
▁watchful
▁mantel
▁admirably
▁admiring
▁untouch
▁targ
▁mournfully
▁imprisoned
▁earned
▁heroine
▁convert
▁bertuccio
▁han
▁rusty
▁scales
▁attributes
▁attributed
▁lydia
▁exalt
▁chil
▁chiltern
▁platter
▁plaus
cknowledg
agr
▁walnut
▁skiff
▁bailiff
▁courier
▁vines
▁spasm
▁thigh
▁pursuing
▁waiter
▁glenc
▁immeas
▁snob
▁snort
▁cavalier
▁esteemed
▁indication
▁commonwealth
▁rector
▁scope
escope
oscope
escence
▁impudence
elle
itchell
▁mitchell
▁rhe
▁rheum
▁interpre
▁suffolk
▁prolonged
▁coral
▁crawl
▁crawley
▁willoughby
▁reigned
▁responsibilities
▁kenn
▁peac
▁peacock
▁sarcastic
▁sarcasm
▁nora
▁cherish
▁plaintive
cibly
▁disconcerted
▁confederacy
▁reap
▁gloss
▁apparel
▁morton
▁venet
▁unintell
▁hurric
▁georgia
apse
verse
▁wolver
ouver
▁enforce
fellow
▁belinda
▁improper
▁graciously
leans
▁orleans
▁hurricane
▁inch
▁mature
▁premature
vidrigail
▁coals
▁alliance
▁brazen
▁ul
▁hinder
abbath
▁sabbath
▁potential
▁chaff
ees
▁flirt
▁continuing
▁evap
▁evapor
▁maturity
▁distemp
akov
▁perplexed
▁blushed
▁blushing
▁pite
▁gascoyne
▁illeg
▁truce
▁spruce
▁smoked
▁peculiarly
▁stack
▁smack
▁rak
▁riddle
▁arn
▁nowadays
▁obligations
▁oblige
iations
▁negotiations
▁guiche
▁silverbridge
elf
▁oneself
▁suite
▁faltered
oral
▁whal
quar
quarters
▁headquarters
▁mosqu
▁unaccountable
▁pinched
▁drained
▁tyrants
▁approb
▁approbation
▁approving
gged
▁corporeal
▁reasonably
▁disliked
▁depressed
sday
▁thursday
▁prosecutor
▁barbic
▁barbicane
▁pavil
▁congratulations
▁piety
▁amendment
▁descendants
▁figured
▁straightway
▁brigand
▁congregation
unciation
▁hoofs
sitating
▁hesitating
▁raz
▁runs
▁gliding
▁choir
▁lamps
▁discharged
iard
▁billiard
▁concur
▁concili
▁desperation
▁respects
▁prohibition
▁fourteenth
▁pell
ancouver
▁signify
▁signor
▁rendez
▁hens
▁manhood
▁boyhood
▁shilling
▁amazing
▁parting
▁saunders
▁separately
▁grop
▁widely
▁reed
▁guineas
▁migr
▁pod
▁juris
▁moderation
▁target
witch
▁secrets
▁undergone
▁neighbouring
▁client
▁claver
▁unequal
▁unmoved
▁discussing
▁tame
▁inhabited
▁propens
▁dejah
▁nourishment
▁concealment
▁seconds
▁shack
▁pulpit
ras
▁casting
▁chipm
▁chipmunk
▁chunk
▁flann
▁flannel
▁psychological
▁floors
▁anniver
▁farthest
chus
▁tab
▁lots
▁chasm
▁flavour
▁flown
▁forbade
▁memorial
▁coolness
▁deduction
▁kittens
▁unav
▁unavoid
ana
lift
▁torches
▁prince's
▁warlike
vidrigailov
▁borough
awares
mons
▁sermons
▁exertions
▁charco
▁resembling
unct
▁sumpt
▁sumptuous
▁dealt
▁bland
▁sized
▁shallow
▁bibl
▁wilfrid
▁demons
▁gurg
▁coroner
▁coronel
▁tel
▁telescope
▁tess
▁tons
eer
▁pretext
▁reflecting
▁causing
▁lull
▁repuls
▁deserves
▁trav
▁refract
drop
▁tickets
▁proclaimed
wreck
▁shipwreck
▁ours
▁legislation
▁navigation
yrcan
▁happening
ulsion
▁sluggish
▁thurston
iors
▁transformed
▁warden
▁wardro
▁wardrobe
▁mysteriously
inqu
▁relinqu
▁yacht
▁fib
▁fuzz
▁victims
▁unconc
▁uncomp
▁snug
▁worthless
▁senor
▁intrins
▁significantly
▁kennel
▁bait
▁prizes
▁moll
▁foll
▁fiddle
▁upwards
▁acquiring
▁inexplicable
▁accompaniment
urer
▁treasurer
idity
▁stupidity
▁minded
▁gardener
iresome
▁tiresome
▁reasoning
▁benny
▁unintellig
▁serenity
▁assuming
▁payment
▁whig
anthrop
▁philanthrop
ront
mont
▁nel
▁nelson
▁commencement
▁captiv
▁knocking
pence
elp
▁alighted
▁climax
▁fists
▁duc
▁fortified
▁constituents
▁couns
▁counsell
▁margaret's
▁devast
▁prohibited
▁totally
lar
▁recorded
▁baroness
▁corresponding
▁augustus
usive
▁answering
▁recomp
▁prophets
▁vainly
▁fortitude
▁stacy
▁supremacy
▁mostly
▁day's
'r
▁sewing
▁varying
▁imperturb
▁crocodile
orious
▁outlaws
▁outlined
▁bathe
▁forgetfulness
▁uttering
▁corral
▁qualified
▁enters
▁linley
▁embroidery
▁copies
mate
▁visiting
▁visits
▁insight
▁blight
▁cabbage
▁bored
ado
▁palp
▁sneered
▁appetites
▁ulys
▁ulysses
▁kicked
▁evinc
▁travilla
▁indications
▁intimately
▁assassin
▁cy
▁cycl
▁princesses
▁partition
▁intricate
▁arbaces
udged
▁panther
▁maloney
▁duplic
▁relay
▁tito
▁eaves
▁egyptians
▁hello
▁tricks
unuch
▁eunuch
▁saun
▁redd
▁reddish
▁grumbled
▁dulc
agged
▁crowned
▁shops
▁effectually
▁compose
▁complied
egiance
▁modified
▁collins
▁fetched
anned
▁expose
▁export
▁contemplate
▁rochester
oso
▁whiskey
rea
rep
▁paula
float
▁rushes
▁prophetic
▁runaway
▁beech
etery
emetery
▁cemetery
▁jesuit
▁moore
▁rogue
▁ceremonial
▁endeavored
▁outstretched
▁hunts
▁huntsman
vard
inting
▁genev
▁cloister
uthentic
▁grudge
▁bould
▁bouch
▁baker
▁antonia
▁antony
▁terrier
▁citoy
▁bristol
▁dub
▁kirk
▁pest
▁pension
not
▁sweeter
walk
▁anthony
▁apprehensive
▁symm
▁dedic
▁galah
▁galahad
▁inconvenient
▁sunbeam
noticed
▁winding
▁tumble
▁injurious
▁requiring
▁paths
etto
▁accidental
▁cere
▁cerebr
udg
▁workers
▁yawning
▁bits
▁cosm
▁accents
tes
▁ambassadors
▁pedd
▁hoopd
▁hoopdri
▁hoopdriver
▁improb
▁improving
▁oldest
▁sweetest
▁accompl
▁disquiet
▁disin
▁exclude
ervis
▁jervis
etr
enetr
▁impenetr
▁impenetrable
▁cricket
▁carpenter
ateg
▁resounded
▁abbot
▁banish
▁midday
▁unmistakable
▁comforted
▁traversed
▁hanged
cessant
▁fools
▁monks
▁sleepy
asphem
▁blasphem
▁grease
po
point
▁horizontal
ugn
▁repugn
▁hug
▁inscription
olated
▁memoir
▁respir
▁mullig
▁levell
▁shoem
▁accusation
▁reserv
▁moderately
arried
▁unmarried
▁enterprises
▁arouse
▁obtaining
▁adult
▁insects
▁constable
▁constancy
▁imb
▁meals
▁skirmish
▁admon
▁admitting
▁whart
▁gore
▁plausible
▁polar
▁rustle
▁caravan
▁puritan
▁vick
▁jake
▁kisses
▁hap
▁borrowed
▁delaware
▁brib
▁gables
▁langmore
▁wearied
▁habitually
▁savour
▁engraved
▁hain't
acit
▁tacit
▁tumbling
▁pike
▁jenkins
auc
▁claire
inburgh
▁edinburgh
▁perverse
▁quote
▁steed
▁rheumat
▁rheumatism
iliar
▁belle
▁charlest
▁translated
▁stairway
▁ambr
▁aye
▁fanatic
eseen
▁ga
▁gaiety
▁gum
▁gush
ona
▁guinea
▁frowned
▁unhappily
▁bruised
▁nile
▁junct
▁mousquet
▁encouraging
tical
▁decency
▁peel
▁yarn
▁incarn
▁scalp
ortion
▁mold
▁raid
ologists
▁implies
▁alley
▁massac
▁cooked
▁tinder
turned
▁taunt
▁capric
▁remedies
▁humbug
▁formula
▁electrical
▁avar
▁avarice
▁supplement
▁patriotism
▁towers
▁sara
rified
▁lustrous
▁nameless
▁they'd
▁she'd
▁caterpillar
some
▁bondage
ected
▁scrambled
▁regained
▁adventurous
▁stunt
▁lass
▁embass
▁standpoint
▁hitch
ssy
▁bessy
▁hardened
▁latitude
lium
▁opium
▁precinct
▁heathen
▁elapsed
▁ted
▁tedious
▁teddy
▁ody
dyakov
▁matches
▁reaches
▁devised
ilar
▁exhilar
▁inflamm
▁promotion
amor
amorph
▁metamorph
▁conqueror
iac
ancip
▁emancip
▁visual
▁shaving
▁liberties
▁attitudes
▁forlorn
▁possesses
▁copied
▁ecclesiastic
itiveness
▁easiest
▁wales
okes
ukes
▁dishe
ec
ecd
▁gallow
▁galloway
▁clair
▁laz
▁romarin
▁absurdity
▁kentucky
▁claus
▁flem
▁flex
▁historian
▁imperious
▁tumultuous
▁coins
▁hovel
onne
▁temperance
▁smoothing
▁wyn
▁yankee
▁invitations
vert
▁statements
▁bundles
olnikov
askolnikov
▁illustrated
▁fearfully
upport
▁unheard
▁temptations
▁dusky
hum
human
▁mohammed
▁sentin
▁sentinel
▁mary's
▁hydrogen
▁charging
▁charitable
▁harass
▁discoveries
abbed
▁discard
▁signals
▁doubted
▁inspire
xim
avia
▁hedges
▁greggory
▁baltim
▁profusion
▁admiralty
▁colonial
▁scanty
▁dat
▁threaten
▁peaks
▁rebels
▁tended
▁solemnity
▁crouched
egr
▁integr
eff
▁patting
▁parsonage
▁clash
urph
▁murph
eph
hire
▁tire
▁conscientious
▁magical
▁practicable
▁practices
▁practiced
▁unob
▁aristob
▁abound
▁fellowship
▁astonishing
iature
▁miniature
▁cracked
▁singularly
▁portug
▁dove
▁holly
▁acquis
▁acquisition
▁transition
▁ivory
enuous
▁strenuous
▁meddle
▁shrubber
▁affright
▁oblique
▁creed
▁paganel
▁degener
▁spun
▁cruise
rust
▁mistrust
▁mic
ico
icing
▁sacrificing
▁noticing
▁consisting
▁beware
▁canoes
▁rites
▁uncont
▁uncontroll
▁cecily
▁captivity
▁homage
ded
▁studded
▁pitched
▁assented
▁distributed
▁anticipation
▁tolerable
tty
▁misty
▁accomplishment
▁inserted
▁sledges
▁consumed
▁toil
▁tommy
▁entreaties
▁flound
▁swine
▁inscribed
▁noises
▁missing
▁fring
▁fluttering
▁fluttered
▁obstruction
▁attic
▁attired
▁expired
▁innocently
▁terminated
▁constitutional
▁mexicans
▁ounces
▁pail
▁wooz
▁malignant
▁candy
▁honesty
▁winterborne
▁symph
▁apprehend
eline
▁representatives
▁myst
▁mystic
▁frederic
▁briar
▁recount
▁recre
armed
▁innov
▁implac
▁exceeding
▁guiding
▁gordon
requ
lier
▁combinations
▁desolation
▁arches
▁growl
▁carter
▁brake
▁philipp
▁linger
▁nobler
▁conceit
▁conceivable
▁juncture
▁shines
bell
▁campbell
▁gull
▁shivered
▁cement
▁utop
▁daunt
▁nigger
▁enveloped
▁loses
▁martians
▁busied
▁baltimore
▁mowbray
▁debray
▁indies
▁package
▁uplift
▁obstinately
▁quarry
▁alma
▁peeped
▁piazza
▁phyll
▁speechless
▁regardless
▁garn
▁coco
▁owners
▁newly
▁hillside
vention
▁intervention
▁vindict
▁translation
▁gear
▁it'll
▁nod
▁boar
iquette
▁etiquette
▁assuredly
▁resided
▁groans
▁zealous
▁seaw
▁ranch
▁analog
▁located
arine
uating
uation
acies
▁contemporary
▁raced
▁raskolnikov
▁prosecution
▁irresistibly
▁scratched
▁connections
▁enlighten
▁plateau
▁hord
▁shaded
▁bere
▁shapeless
▁ogre
▁screaming
rescent
▁bray
▁hastening
▁conductor
▁continuance
▁amazon
▁exercising
loyd
▁lloyd
▁syllable
▁disheart
▁dock
▁recital
▁janet
▁jacques
illes
▁unbelie
▁latent
▁competent
▁correspondent
▁rebellious
▁ridd
▁provocation
▁cavalcant
▁luxuriant
▁diverted
▁pestil
▁wight
▁valor
▁deposit
▁deposits
▁affectionately
▁pooh
▁thrash
▁sidewalk
▁isolated
▁swayed
▁swaying
▁designed
▁imperceptible
dam
sterdam
▁ketch
▁sash
▁wisely
adok
▁kadok
okhov
▁laboratory
▁contrive
▁intrust
▁posture
▁cigarettes
forth
▁overth
▁overthrow
arth
▁garth
▁allison
▁emotional
▁fragile
▁compos
▁promont
▁yielding
journ
▁carl
illed
▁crystall
▁populous
▁windsor
▁indol
▁spong
▁vowed
▁casually
▁legged
▁castles
▁emerge
▁gestic
▁allowing
▁yale
▁infallible
▁file
▁reared
▁yelled
▁traddles
▁conceited
▁arranging
▁bully
▁choking
▁exclamations
voc
▁hampton
▁deception
▁scornfully
▁achievements
▁accomplishments
▁colonists
▁vehem
▁vehemence
▁research
▁diction
▁recompense
▁pretense
▁tense
▁laced
▁disgraced
▁l'
▁lind
▁frontier
▁falk
▁grizz
▁constituted
▁athenians
▁lounging
▁unear
▁committing
▁lunatic
▁idleness
▁sagacity
haw
▁meditated
aterially
lethorpe
▁oglethorpe
▁tendencies
▁independently
▁indec
▁apostles
▁apostle
▁earle
▁twinkle
▁twinkled
indle
▁garral
▁unimport
▁lena
▁contend
▁spencer
enhow
▁torpenhow
▁enliven
▁barbarians
▁pilgrimage
ighthood
▁sticking
inople
▁constantinople
▁ambush
▁digress
▁owen
▁politicians
▁familiarity
▁volley
▁transaction
▁repaired
▁mace
▁dialogue
▁diary
▁engaging
▁ambig
▁enig
▁governors
▁appearing
▁venom
▁preface
▁optim
▁rakit
▁controlled
▁peterkin
▁proff
▁proffered
▁sock
▁bah
ableness
▁shameful
▁improbable
offrey
▁geoffrey
▁syria
▁loath
▁loan
▁loop
▁contemplating
▁beaver
▁instructed
uced
▁distracted
▁sheltered
▁unfit
▁git
▁gul
▁gutter
▁weird
minster
▁westminster
▁exploits
iloqu
▁brazil
aub
▁stan
▁stanley
▁sting
▁waked
▁intercept
▁twin
▁cavalcanti
ini
▁brok
▁promot
▁pars
▁parsley
▁wingfold
▁pausing
▁exposition
▁dies
▁dip
▁sep
▁diseases
▁grammont
▁grammar
court
▁cooper
▁eternally
akeney
▁blakeney
ipper
▁oysters
▁ponderous
lves
▁vancouver
▁satin
▁anew
▁athos
▁volunteered
▁cleft
▁valued
▁morrel
strel
▁minstrel
▁impertinent
▁impertinence
opper
▁arduous
▁dances
▁realise
▁trough
▁dough
▁troll
▁misc
▁tenant
▁deuce
▁bung
▁brigitt
▁undone
▁undo
▁dubl
▁declares
vin
▁bin
▁bou
cessible
accessible
ecess
▁predecess
rac
▁syrac
▁thames
▁meditative
▁corpses
▁sexes
thesis
▁baba
▁rasp
▁cherries
▁complaints
brook
▁hats
▁freak
▁smelt
▁eagles
▁peddler
▁alexey
▁securing
▁chambers
▁picnic
▁oblivion
▁lapse
▁explaining
▁unarmed
rah
▁hurrah
▁requested
▁celebrate
▁logs
▁beams
oscop
▁silken
▁considers
theast
aston
ection
▁implacable
▁epist
▁nikol
▁nikolay
▁unfair
▁collapse
▁daint
▁dens
▁calculation
▁calculations
resses
▁diminish
▁geography
▁deceiving
▁chieftain
▁secondly
▁trinity
▁pussy
▁suggestive
▁capricious
▁spied
▁sinner
▁vein
▁hysterical
▁radical
▁cust
▁condemnation
▁plays
▁seeds
▁sorrows
▁wilmot
▁blot
▁svidrigailov
▁elders
thmetic
▁cerebral
▁brend
▁brenda
▁brack
▁integrity
▁witty
▁reconcili
▁ross
▁praying
▁wherewith
▁batteries
▁raises
▁multiplic
▁corruption
▁wright
▁wrung
▁strung
▁slung
▁stung
▁vo
▁rakitin
▁dublin
▁rim
▁brilli
▁brilliancy
▁ni
book
▁nurses
▁brushed
▁solicitor
▁christians
▁magp
▁magpie
▁dispersed
▁whispers
▁substituted
▁mounting
▁using
▁longing
▁longed
▁glaring
▁friend's
▁graz
▁swiss
evik
shevik
▁inhabit
▁exempl
▁dependence
▁verb
▁version
▁veranda
▁unearth
▁genus
▁euph
▁lac
▁thorac
▁loki
▁thoris
▁servad
▁servadac
▁servitude
▁salad
▁yolk
lan
▁monarchy
▁dominions
aternity
▁intrigue
▁scarf
▁josie
▁offers
lete
▁disgusted
▁darnay
▁moves
▁deign
▁cowardice
▁paced
▁rolls
▁calamities
▁jessica
encing
▁volupt
▁tempered
▁moment's
▁shares
▁squares
aches
▁adverse
main
▁delayed
▁winged
▁detained
▁horse's
▁cros
▁crosb
▁crosbie
▁stirrup
▁glencora
▁accl
▁terrify
▁provoked
▁switzer
▁switzerland
▁executioner
▁blossoms
▁affirmative
▁clem
▁exterm
mer
azad
razad
▁shahrazad
▁abnormal
▁regulated
▁kite
▁kay
ancing
▁problems
▁bidden
▁contracted
▁giles
▁indecision
▁richly
avors
▁proven
▁combatants
▁marqu
▁marquise
▁bands
▁greeks
▁cups
▁impuls
spread
▁virgilius
▁chatting
▁cowardly
▁rely
▁pruss
▁grade
▁quoted
▁octavia
▁eb
▁ebony
▁bony
▁suffoc
▁dive
grown
▁abused
▁dante
ele
▁steele
▁steer
▁sensitiveness
▁sensual
▁eyelids
▁flourished
▁bethought
▁battal
▁imitated
lant
▁indig
▁indo
▁indoors
ero
▁mortimer
▁persistently
▁hoard
▁shrieked
▁rick
▁perempt
▁thoracic
iciency
▁johnnie
▁nanny
▁barley
▁adapt
▁crowds
▁persuading
▁fading
▁knighthood
▁ties
▁clap
okesmith
▁recept
▁nieces
▁agency
▁scraps
▁incredulous
beard
▁cars
▁indulgent
▁pud
▁pantry
▁massachusetts
▁obscured
igured
▁rook
▁reinforcements
▁soliloqu
▁rustic
▁impending
▁grandchild
▁fray
▁perkins
▁recommendation
▁maze
▁mes
▁owes
▁elf
▁disf
▁shoved
▁pillar
▁pelop
▁geome
town
inn
▁vern
▁mulligan
▁magazines
uble
▁relish
▁speaks
▁sacram
▁vase
▁da
▁taciturn
▁zero
▁halting
▁devoured
▁dismounted
▁lasted
▁naz
▁ern
▁remonstrance
▁monkeys
▁stimulated
▁concerns
▁eruption
▁eclip
▁sheets
▁repulsive
▁manufactured
aneously
▁tremendously
▁stupend
▁stupendous
▁sherwin
▁sumter
▁doubts
▁debts
iser
▁palliser
▁martine
▁martineau
▁strangest
▁gilded
▁respected
▁uncon
▁uncanny
lyn
▁evelyn
▁shaved
▁particulars
▁wonders
▁ernest
▁bursting
▁gratefully
aging
tieth
▁thirtieth
▁porcel
▁concret
▁blues
▁edged
▁edifice
▁brooding
▁arnold
▁kang
▁kangar
▁kangaroo
▁tease
▁chilly
▁dean
▁respective
▁craving
▁ancients
▁anecd
▁paved
▁essex
▁splinter
▁vicom
▁vicomte
▁estimation
▁estimated
▁confirmation
▁contemporaries
▁males
▁descriptions
▁crescent
▁exempt
▁blond
enance
aintenance
▁extravagance
▁insensibility
▁permanently
▁squat
burton
▁warburton
▁dissipated
▁southw
▁brew
uptial
▁impartial
▁guides
▁tides
▁impudent
▁spright
▁dal
maker
▁contemptuously
▁chuckle
▁affront
▁profoundly
▁waterfall
▁nightfall
▁fearing
▁starv
▁starvation
▁vacation
▁compensation
▁secular
▁rawdon
▁loosen
▁giddy
ensively
▁unbounded
ills
cknowledgment
▁conjunction
▁protector
▁beckoned
▁lacking
▁tourn
▁cro
▁apollo
▁didst
▁industries
▁puck
▁redmain
▁cultivate
▁bewilder
▁bewilderment
▁frames
▁persecuted
▁extric
▁polona
▁disadvantages
▁heights
▁ducks
▁submarine
ulus
▁aristobulus
▁grated
▁richest
▁mainly
▁inflamed
▁custody
▁abundantly
▁ozma
▁sleek
▁organism
man's
▁heaped
▁skimm
▁baw
▁springing
▁straightforward
pton
▁immeasurable
▁failing
racticable
▁peculiarity
▁disfigured
▁corridors
▁oval
▁edna
enna
▁vienna
▁poultry
▁riders
▁peers
▁allusion
▁greg
▁gregory
▁burglar
shot
▁banker
▁mouths
▁adore
▁grigg
▁confide
▁diffused
▁denisov
▁consequent
ugging
▁stumbling
▁cylind
▁rendezv
hal
▁exceptional
▁exceptionally
▁grape
▁ivanovitch
▁pane
▁sane
▁paternal
▁conversations
▁safer
▁menace
▁fidget
▁alexandria
▁compliance
▁complais
▁hyrcan
▁sorely
▁indicating
▁indicates
▁raptur
▁unsuccessful
my
▁jock
▁mell
▁mellow
▁sow
▁repeatedly
▁ignore
▁sensibly
▁voluptuous
▁insin
▁goin
▁shin
▁ron
▁ronald
▁prosecute
▁sulk
▁poach
▁gravitation
pan
▁saucepan
▁gan
▁ganem
▁thong
▁embarked
▁bubble
▁amusements
▁makers
▁quadr
▁betsy
▁indifferently
▁ardently
▁edgar
▁sliced
▁slant
▁discourage
▁wanderings
▁milner
▁prompted
▁restrained
▁judgement
▁sue
▁muskrat
▁interpreter
▁fernand
▁cigars
▁displeased
▁consul
▁consort
▁reub
▁reuben
▁brighter
rians
▁strew
▁strengthened
▁stations
▁discovering
▁smoothly
▁blizzard
olic
▁adelaid
laid
oodoo
▁trotting
▁approxim
▁proxim
▁propped
▁parasol
▁dimm
▁shimm
▁blades
▁folliot
▁phoenic
▁pansy
aract
▁cataract
fact
▁unsatisfact
▁nero
▁pregn
▁sister's
▁governing
▁grasping
bler
▁crus
▁mosquit
▁unsatisfactory
▁athen
▁buttons
oons
▁diale
▁dialect
▁subsistence
▁fastidious
▁raged
▁gleamed
▁contemptible
▁louisa
▁plea
estra
chestra
viet
▁petrified
▁cair
▁irresolut
▁hammock
cock
▁mouthful
ene
▁yose
▁yosem
▁yosemite
moil
▁turmoil
▁topic
▁volcanic
▁volcano
▁schoolmaster
▁sacraments
▁maintenance
hall
▁metall
▁metallic
▁pavilion
▁dejection
▁carving
▁zepp
▁zeus
▁swoop
▁sloop
▁historic
▁histories
▁historians
▁modes
▁dizzy
▁transactions
▁administered
▁pallid
▁diverse
▁gallows
fellows
oeuv
owder
powder
▁gunpowder
'p
'pose
▁s'pose
▁site
▁tony
▁remnants
▁remnant
outhed
▁wharton
▁achievement
▁quilt
▁explic
▁categ
▁strateg
▁cordelia
▁chord
▁twain
▁orthodox
▁militia
▁postpon
▁newcom
▁clasping
▁torres
▁bruno
glass
▁mowgl
▁lobby
▁unexpl
▁valleys
▁constraint
▁taint
▁mink
▁unlo
▁unlim
▁unlimited
▁romay
▁romayne
▁ingenuous
▁stuffed
▁contributed
▁louisiana
▁representation
▁tumbl
▁charcoal
▁insurance
▁inevitably
▁popped
▁poign
▁tangle
uding
▁speculative
▁enchan
▁rendezvous
▁hauled
▁gestures
▁damascus
▁oliv
▁almond
▁adjourn
▁adjut
▁tut
utable
▁other's
ernel
impernel
▁describing
▁describes
ato
▁overh
▁overhang
▁porcelain
▁lawful
▁infect
▁primarily
▁wearily
▁vulture
isle
isance
▁alteration
▁disapproval
▁veteran
▁outburst
amiliar
▁unfamiliar
▁jet
▁prescription
▁presided
▁intrusion
▁imaginable
roy
▁gilroy
▁advocate
▁curd
▁smould
▁sooth
▁rosalind
ogue
▁compr
▁alac
▁alacr
▁alacrity
▁shrive
▁arguing
▁religions
▁mills
▁scow
▁scald
▁scull
▁scoff
▁andrea
▁revive
▁grandp
▁cashier
▁cable
▁revolving
▁hopeful
▁hypocris
▁goth
▁glimmering
▁decisions
▁colleges
▁lilac
▁droll
▁drought
▁nu
▁nuisance
▁wuz
▁functions
vonne
▁yvonne
▁nev
▁improv
▁yor
▁yorke
▁nursing
▁drooping
▁dundee
▁sometime
▁discons
▁disconsolate
▁discom
▁discomf
lane
ls
▁borls
▁borlsover
▁hindrance
▁clove
rove
▁clare
▁astr
▁chir
▁uninterest
▁unnoticed
▁unaware
▁unres
▁fried
▁unlocked
ustin
▁investigate
▁grumbling
▁bot
▁philamm
▁butcher
▁brightened
▁straightened
▁metals
▁installed
▁wench
▁rais
▁piteously
▁piteous
▁numb
▁appeas
▁acquitted
▁fruitless
▁fearless
▁jenning
▁jennie
▁minnie
▁acceptable
▁nuptial
▁majesty's
▁eugene
▁appealed
▁wyat
▁couplets
▁bracelets
▁doorstep
criptions
▁convulsions
▁fashions
▁appointments
▁requirements
▁contrivance
▁earthen
▁trunks
▁perspective
ierra
▁sierra
icorn
▁malicorn
▁maternal
▁declining
▁definitely
umbent
▁deport
▁depot
▁kara
▁beneficial
▁judicial
▁laund
▁elliot
ife
▁lashed
▁kennic
▁kennicott
cott
cass
▁poetic
▁epic
▁realization
▁location
▁reconstr
▁disinterested
▁professed
▁professors
▁people's
▁blister
▁dimp
▁whimp
▁curses
▁cured
▁curly
▁dancers
▁customers
▁selling
▁regularity
▁shameless
▁joam
▁joanna
iber
▁astound
▁bolted
▁shrug
▁stagn
oncile
▁reconcile
▁volition
▁animation
mare
▁nightmare
▁reeds
▁voiced
▁officials
▁sustenance
▁vicksburg
▁limitation
▁braid
▁awakening
▁infants
▁amory
▁conne
▁connex
▁abd
▁inflex
▁whoso
▁vanishing
▁mimi
▁trodden
▁irritable
▁irrational
▁irritating
▁parch
▁parchment
▁fum
▁dissolution
▁blindness
▁unbear
▁glug
▁illustrate
▁consulting
▁consultation
▁impulsively
▁rupert
▁sorrowfully
▁shrine
issy
▁variations
▁whereof
▁boundary
odora
▁profane
▁colossal
▁teas
▁meetings
▁skirts
▁pistols
▁incline
▁vivacity
▁camels
▁camer
▁huck
▁clamor
▁intoxicated
▁zadok
▁bolshevik
▁extraordin
▁extraordinarily
▁communicating
▁ugliness
▁ambros
▁dess
▁dessert
▁wailing
▁retiring
▁rye
▁rames
▁rambl
▁rudder
▁rinald
▁doubtfully
▁gypsy
▁bedstead
▁gib
▁foref
▁enlarge
▁lect
▁heaviest
▁renaud
▁infid
▁victual
▁speedy
▁cheerfulness
▁carelessness
▁dubious
▁unite
▁distorted
▁penniless
▁veritable
▁vertical
▁bates
▁grimaud
storm
tingham
▁seamen
▁citoyen
ampton
astrous
▁disastrous
▁gond
▁scanned
utomatically
▁proprietors
▁spilet
▁spilett
▁crucif
▁crucifix
▁indiscretion
▁constell
▁armand
interrupted
▁margery
▁quivered
▁vestig
▁carrie
▁entertaining
▁muff
ustr
▁distast
▁entail
▁robust
▁mused
▁successor
▁smelling
▁sixpence
▁vas
shaw
▁avow
uder
▁intruder
▁gentry
▁berry
▁scruples
▁needles
▁conclusive
▁perceptions
▁leopard
▁alarming
▁forefing
▁forefinger
▁dealing
▁avon
▁avonle
▁incomplete
▁grandson
▁rascals
▁penitent
▁folding
▁foreb
▁forebod
▁luther
ugment
▁carfax
▁carcass
dust
▁sawdust
erby
▁bounderby
▁football
itial
feit
▁dotted
▁pedest
▁men's
▁socialist
robor
▁corrobor
▁inquiring
▁recognizing
▁apothe
▁frere
▁survival
▁consecrated
▁exasperated
▁fathers
▁proofs
▁boister
▁brad
▁identify
▁pouch
▁abolished
▁dinah
▁crouching
▁recovering
came
▁woollen
rogr
▁maryland
amour
▁cabbages
▁degrad
▁hannib
valanch
▁leisurely
▁condescend
▁seals
▁crystals
▁shuff
▁shaven
▁popularity
▁yon
▁retic
▁sallie
▁benefactor
▁surpl
▁wars
▁procuring
isation
▁micr
▁glittered
▁enduring
▁rogers
▁gerald
▁swed
▁sweden
▁swagger
▁flickering
pring
spring
▁offspring
▁cartridges
▁creaking
▁permitting
irtier
▁shiny
▁sly
▁plut
▁glut
▁tribut
tering
▁bowing
▁grinding
▁snowy
▁mov
▁rebu
▁rebuke
▁desiring
▁herds
▁grapp
▁gren
▁grub
▁griff
▁reproduce
▁clavering
▁congratulated
▁dangling
▁harmonious
▁patriotic
▁preposterous
▁werner
haust
▁inexhaust
keepers
▁drawers
▁maids
▁collars
▁uses
▁bib
▁bibbs
▁balk
▁omnib
▁omnip
▁subdue
▁beauchamp
▁unsh
▁unin
▁headache
▁basement
▁detachment
▁inventions
▁imperson
▁impre
▁impot
▁impracticable
▁resear
▁researches
▁offense
▁bravest
▁canst
tically
athetically
▁discred
▁shred
▁voted
▁surveyed
affect
▁myles
▁dishonor
▁posts
allows
▁swallows
▁products
owerberry
▁virtually
▁thrush
▁bobb
kirt
▁ink
▁grandchildren
▁concentration
▁egot
▁pianof
▁pianofort
▁befallen
▁tipped
▁gripped
▁courageous
▁accommodation
▁walcott
▁yearning
▁doubly
▁tactics
▁smothered
▁scores
▁compel
▁countenances
▁shak
requently
▁gladness
▁shifted
▁hindered
▁remin
▁reminisc
▁needless
▁gaining
▁ruling
▁forcing
▁wrapp
▁indecent
▁darrow
anter
▁pleasanter
▁emble
▁emblem
▁pebble
▁nit
▁youngster
▁noiselessly
▁titan
▁cran
▁resembles
▁despotism
▁solace
▁penance
▁grating
▁von
▁charleston
▁surg
▁hoot
▁representing
lokhov
▁emperor's
▁cannib
▁frankness
archy
▁projectile
▁unimportant
▁hydra
cox
▁wilcox
▁dorm
▁balancing
▁bac
▁bacchus
▁poplar
▁phyllis
▁goldsmith
▁incomparable
▁oblong
▁gour
coming
▁legislative
▁provoke
▁invinc
▁invincible
erting
▁asserting
▁reverie
▁robart
▁saucy
▁glacial
▁nitrogen
▁negotiation
▁rosalie
osa
osph
▁phosph
▁degradation
▁stark
▁crock
▁phosphor
▁collector
▁overwhelming
▁counting
▁arabian
▁freem
▁surviv
rimonial
▁scrape
▁troph
▁suffers
▁quadrup
▁scientists
▁baile
▁haines
dry
▁sundry
▁jewelry
▁charmed
▁destroying
▁shivering
▁crushing
▁contentment
▁consign
▁enlarged
rupulous
▁syrup
▁marj
▁marjor
▁inherent
iating
▁ll
▁randolph
▁wren
▁burne
▁cupful
▁madman
▁nursed
▁profuse
▁knotted
▁advisable
▁ludov
▁overcame
▁unspeakable
▁hampshire
▁spade
adequ
adequate
▁tufts
▁poisoned
▁founded
▁critically
▁dose
▁impose
▁imply
▁imple
▁implements
▁sweetly
▁rightly
▁invariable
ifiable
▁persecut
a'n't
▁sha'n't
path
▁seasons
▁bricks
▁gulp
▁publicly
▁barefoot
▁objected
▁portugues
▁ford
▁occurs
▁commons
▁mattie
▁encomp
▁defending
▁recollections
▁humiliating
▁softer
▁dissent
▁disclosure
▁uppermost
▁hatchet
▁galloped
▁enm
▁enmity
▁chirp
▁influential
▁foc
▁smitten
vir
▁sagacious
▁scientist
▁boundless
▁professions
▁sowerberry
▁overthr
▁overthrown
owness
▁adored
ctor
▁invested
▁convincing
▁merchand
▁pollen
▁wintry
▁scruple
▁scrupulous
▁fabulous
▁solar
▁shod
▁dedicated
▁crowns
▁athens
▁settlements
▁epithe
▁triang
▁clang
▁thickly
▁denounced
▁uncouth
▁jane's
▁grandpap
▁neelie
▁relates
rithmetic
▁intrep
airy
▁dairy
chair
▁armchair
▁unintelligible
▁goats
▁dandy
▁amy
sed
ssed
▁tossed
▁roofs
▁shutters
▁hailed
▁thirteenth
▁conveniently
▁antagonist
comb
▁expans
▁exposing
▁interfering
lihood
retches
▁wretches
▁circling
▁packing
▁abashed
▁splashed
ree
▁lashes
▁constitutes
▁farmhouse
▁odys
▁odysse
▁odysseus
otic
▁cot
▁customer
▁quer
▁queried
pper
ker
▁traveler
▁patrol
▁dickens
note
▁footnote
▁anecdote
▁anecdotes
▁hardy
▁travelers
▁twould
▁succour
▁lucie
▁silas
▁collision
▁collaps
▁liar
▁siber
▁golf
▁sideways
▁convictions
▁wiping
▁storms
▁gilt
▁ging
▁ginger
▁clause
▁toilet
▁ardour
▁everyday
▁festivities
▁materially
▁gigg
▁excav
▁striped
▁overlooked
▁lair
▁leonard
▁profile
▁philist
▁philistines
▁slammed
▁plunging
▁shifting
▁belgium
▁illusions
▁marchion
▁marchioness
▁glowed
▁geneva
▁wyld
▁unanimous
▁infamous
▁galile
ygen
▁oxygen
in's
▁altitude
▁encompass
▁bitten
▁designs
▁crane
▁grievous
▁succeeding
▁josiana
▁trampled
▁handled
▁musicians
grow
▁exeter
▁accepting
herent
▁molten
▁fireside
wald
▁oswald
▁herald
▁wheeled
▁graduate
▁pointer
▁crusoe
▁ingredients
ileas
▁phileas
▁muttering
▁joking
▁jokes
▁congen
▁privacy
▁wines
▁hier
▁animosity
▁mocking
▁battered
▁freez
▁jerked
▁ruffled
▁rural
▁vasili
lit
▁dwind
▁sherwood
▁ruffian
▁bramble
▁scramble
▁sanguine
▁teap
▁teapot
▁metropolis
▁royalty
▁humpty
imentary
▁cynth
▁cynthia
▁gluck
▁currants
▁currency
▁avonlea
▁perry
▁programme
▁objective
▁murphy
▁prettier
respect
▁disrespect
uspect
▁unsuspect
▁mutually
▁knitted
▁returns
▁ardor
zevir
▁adherents
aments
erned
▁discerned
▁unconcerned
▁aspirations
▁crump
▁snub
▁samson
▁thomson
erd
imerd
▁shimerd
▁naom
▁naomi
▁koodoo
▁rafter
▁georgina
▁bounded
▁flickered
▁deacon
▁brav
▁mong
▁natty
▁dumpty
▁flattery
▁flattered
▁errone
▁coats
insula
▁peninsula
▁bonaparte
▁clearer
▁cheque
▁gravy
▁append
▁napkin
▁disapprove
inois
▁illinois
▁prisoner's
▁inquiringly
▁fringe
▁judicious
▁stride
▁corps
▁tus
▁tuske
▁tuskege
▁tuscan
▁discomfiture
▁greas
▁gret
▁grettel
▁complet
▁completion
▁combine
peck
▁blended
▁bankrupt
▁occupants
▁imprudent
▁mutil
▁disincl
▁gawain
▁crevice
▁grabbed
▁promontory
▁selina
▁frustr
▁weaker
col
▁malcol
▁jol
▁jars
▁malchus
▁amsterdam
▁calmness
equality
▁infinity
▁bridal
▁token
▁bohemia
▁peggot
▁peggotty
▁ridges
▁whims
▁traditions
▁replen
▁satan
▁belly
▁furthermore
▁soothe
▁undisturbed
▁trenches
▁d'ye
shop
shadow
owski
▁senators
▁complacency
▁physiogn
▁betook
▁rameses
▁huss
aterina
▁katerina
▁inexpressible
▁flatten
▁comed
▁comedy
▁poyser
▁cheery
▁cheering
▁peeping
▁travels
▁darwin
▁myth
growth
▁particle
▁mingle
esley
ulity
▁incredulity
▁oats
▁hir
▁hild
▁surfaces
▁pins
▁achieved
▁encumber
▁concurrence
▁untrue
▁untruth
▁icy
▁strides
▁knave
▁knuck
▁knoll
▁diplomacy
▁iceberg
▁locust
▁locom
▁termed
roc
▁buccaneers
▁breeding
▁lynx
▁implored
▁adjusted
▁yorkshire
▁tam
editary
▁hilt
▁nevada
▁heath
▁heathcliff
▁varn
▁variation
▁wilmington
▁wicker
▁expan
▁expanse
▁triangle
▁lining
▁tucked
▁peculiarities
▁horseman
▁chairman
▁raging
▁benefic
▁sentinels
▁dived
▁diseng
▁langdon
▁refreshed
▁mechanics
lled
▁contribution
▁contag
▁contention
agu
▁stork
▁stored
▁entrusted
▁lookout
▁gaston
▁afore
▁afresh
▁blocks
▁speculations
▁whimsical
▁blazed
▁squeezed
▁bounds
▁blindly
▁nar
▁quench
▁wrench
▁mingling
▁randal
aled
▁rewarded
▁shelves
▁cloudy
▁watches
stock
▁marine
thorn
▁drenched
▁corrupted
▁transient
▁aimed
▁vividly
▁steamboat
cular
▁guise
▁enquire
▁enri
▁enriched
▁abhorrence
▁prospects
▁fits
▁morals
▁pelopon
▁peloponnes
▁besieged
▁bearings
▁impregn
▁swelling
▁swelled
▁heaps
▁knaps
▁knapsack
▁anglic
▁despatched
ivoc
▁obsequ
tles
▁turtles
▁pursuers
▁riv
▁sparks
▁sympathetically
▁comments
zed
▁concentrate
▁wrenched
▁casket
umbr
▁precipitous
▁caprice
▁seaman
▁involving
▁potato
▁antipater
▁antipath
▁locksley
▁peev
▁peevish
▁microscop
▁dinars
bec
▁coqu
▁unquestionably
▁wares
▁rats
▁omnibus
▁plucked
▁ascertained
▁marsden
▁daoud
▁occasioned
▁owned
▁quartz
auff
auffeur
▁resisted
▁comprehending
▁whizz
▁blackness
▁boisterous
strained
▁unanimously
▁dejected
▁elim
▁elzevir
▁precipices
rose
▁scrupulously
▁rents
inished
▁unfinished
▁habitation
▁predic
▁predicament
▁footh
▁wroth
▁unavail
▁keel
▁avowed
▁shopping
▁shakes
▁precipitate
▁assurances
▁fasten
▁wistful
▁wistfully
▁accomplice
▁intrigues
▁bewitch
▁silenced
▁vampire
orily
▁satisfactorily
▁greedily
▁tremor
▁simpler
▁explicit
▁uncl
▁massacre
▁appertain
▁disgraceful
▁gig
▁recipient
brand
▁divert
meg
▁nutmeg
▁scroll
▁reiter
▁justly
▁contrivances
▁relatively
▁realizing
▁uncovered
▁rhod
▁expost
▁geron
▁geronim
▁geronimo
heim
▁sut
▁suzan
▁exit
▁lurking
▁mouthed
▁dictionary
▁groove
▁unaffect
▁drowsy
▁distribute
▁cope
▁core
▁spher
ipher
▁madden
▁launched
▁piqu
▁pose
▁respectability
▁carpets
▁assistants
▁protestants
▁harvard
▁sliding
▁bubbles
ofore
etofore
▁transcendent
▁insupport
▁institute
▁creditors
▁dorry
▁unsc
▁unscrupulous
▁osc
▁osmond
ienne
bon
▁irrevoc
▁observance
▁schoolboy
▁jub
endarm
▁gendarm
aug
▁cleanliness
▁deficient
▁reformation
▁skipper
▁paddle
▁unprof
▁martyrdom
▁inexhaustible
▁instincts
▁instinctive
▁processes
▁exuber
▁memorand
▁chum
▁chagr
▁hurons
▁bash
▁crumbling
▁alcoh
▁acorn
za
▁alg
▁embodied
▁stip
une
▁shun
▁shedding
▁blooming
▁tet
▁tete
▁tending
▁debauch
▁ceases
▁reversed
▁enables
▁aggre
▁aggregate
reast
▁abreast
▁inconsistent
▁exploit
▁spit
▁sph
▁sphin
▁sphinx
▁appalling
▁fling
▁filthy
▁monopo
▁monopoly
▁excitedly
▁schoolroom
▁woozy
▁patchwork
▁purest
▁snowdrop
▁individually
▁pinn
▁pinned
▁whereabouts
▁decorations
▁fade
romising
from
▁marvelled
▁conveniences
▁diminution
▁bee
▁scornful
▁scrutiny
▁incumbent
▁planets
▁raddle
▁conversion
▁sneer
▁nothin
▁gride
▁pensive
▁defensive
▁defer
▁defy
▁defied
▁cellars
▁missionaries
▁prone
▁zone
▁connexion
lem
▁enigm
▁meekly
▁equator
▁comply
▁shoemaker
▁derive
▁extort
▁barbarian
▁deafening
▁unearthly
▁practising
▁hilar
▁hive
▁adventurer
▁adventurers
▁superiors
▁loosed
▁securely
▁pimpernel
▁inwardly
▁sickly
▁correctly
▁recesses
▁friction
▁adjustment
▁persh
▁assim
▁assimil
▁vows
▁divined
▁glimmer
▁trimmed
▁rivalry
▁gallantry
▁agricola
▁oakes
▁redoub
▁captain's
▁gems
▁proceeds
▁fails
▁flocks
▁mists
▁gruff
▁saus
▁miranda
▁frogs
ilib
▁equilib
▁equilibri
▁equilibrium
ils
▁breaks
ante
▁kenwigs
▁agreeably
▁lavender
▁brimm
▁fras
▁fraser
▁retribution
▁amiss
▁mand
akers
▁jov
▁jovial
▁increases
▁preferable
▁gobl
▁fragoso
▁sentry
▁prettily
▁buying
▁pacing
▁ludic
▁ludicrous
▁psychic
▁urging
▁omnipot
▁walt
▁waltz
▁novels
▁mug
▁tension
▁percent
▁accessible
▁fixing
▁disturbing
▁affecting
▁drowning
▁bayon
▁binding
▁lanc
▁maple
ilghai
▁nilghai
▁devils
▁expended
▁enjoined
▁heroism
▁adjutant
▁shrugging
▁streaked
▁hereditary
▁lag
▁lagoon
▁spout
▁furt
▁clod
▁patronage
▁stiffly
▁derision
▁demure
▁demol
▁demoral
oles
▁includes
▁instig
▁ensuing
▁deity
▁contending
▁geographical
ton's
▁mik
▁greasy
lands
▁flashes
▁conversed
▁fainted
▁postpone
▁respecting
▁meditating
abble
▁absently
▁fervently
▁bathsh
▁subt
▁sample
▁steered
eb
▁bathsheb
▁seduced
▁vernon
▁joll
▁perforce
▁poised
▁advertised
▁skinner
▁hopelessly
▁rudely
▁modestly
▁pleading
▁clutch
thood
▁reek
▁gothic
▁footmen
▁bunder
▁bundercombe
▁melbourne
▁dissolve
▁graveyard
▁pamel
▁blouse
▁grouse
▁resident
▁mama
▁southwest
▁favors
▁vibration
▁bask
▁unr
▁vestib
▁vestibule
▁ballast
sham
▁feversham
▁gresham
▁worms
▁spears
▁proves
▁sherry
▁crag
▁crashed
mphithe
▁attempting
fit
▁outfit
iesthood
▁priesthood
▁authors
▁authorized
▁possum
▁deprec
▁depreci
civ
▁scur
iner
▁paler
▁gout
▁traps
▁ghosts
▁unprepar
▁corrected
▁concrete
▁unatt
▁pratt
▁rides
▁grandma
▁roadside
lliver
▁dye
▁cane
venture
adventure
▁unfavor
▁separating
▁athenian
▁blithe
▁thrilling
▁complacently
▁scorched
▁nazareth
▁estra
▁calend
▁calendar
▁suspend
▁suspension
▁thrilled
▁assailed
▁tom's
▁misle
▁prevailing
▁introducing
▁suzanne
▁morocc
▁pion
▁pioneer
▁poetical
▁appell
▁temporal
▁outrageous
▁preparatory
arken
▁dexterity
▁surgery
▁threats
▁woes
▁devise
▁treatise
▁cyp
▁spectre
▁reliable
▁erroneous
asuring
▁wisc
▁wiscons
▁wisconsin
▁wisp
▁therein
▁raisins
▁sord
▁sordid
▁sissy
▁warren
▁metaphysical
▁hypocrisy
▁astronomy
▁burgundy
▁servile
▁deportment
▁scarborough
ogne
lov
▁sown
▁darker
▁memorandum
▁boldness
▁tips
▁ruggles
▁strut
▁scut
▁plush
▁presty
faction
▁dissatisfaction
▁recreation
▁implicit
▁wilful
▁sprawling
▁carson
▁powerless
▁tho
▁thinner
▁thaw
▁praising
▁assemblage
belie
▁disbelie
▁greeb
▁veiled
▁curry
▁pricked
▁vapor
▁razor
▁rubies
▁doun
▁dounia
▁hullo
▁dissim
▁sah
▁hardships
▁livelihood
▁condescended
mann
▁paltry
elope
▁ful
ionys
▁dionys
▁dapp
▁conway
▁pathway
▁diligently
augur
▁finely
▁detestable
▁ribs
▁jord
▁jordan
▁frant
▁frantically
▁hobbled
▁vehicles
▁raffles
▁projected
▁tartar
▁dashing
▁jailer
▁catalogue
▁workmanship
▁confederation
▁smear
▁fulfilment
▁ryn
▁spat
▁spokes
▁sped
▁mit
▁surprises
▁afar
▁gaul
rocious
▁mythology
▁diplomatic
▁preaching
▁wrinkles
▁knightley
▁prejudiced
abul
abulary
▁vocabulary
onnected
▁grenville
thell
▁othell
▁ceasing
▁reckoning
imetheus
▁epimetheus
▁politician
▁decomp
▁marion
▁marionette
chamber
▁eclipse
▁provident
▁seating
▁chry
▁uncompromising
▁tankerville
▁stowed
▁stella
▁polonaise
▁hopping
▁curling
▁skir
▁individuality
▁denmark
▁assailants
▁tenants
▁louv
olf
▁insure
▁quack
▁confront
▁symmet
▁anita
▁finite
▁prefers
▁immov
▁merits
▁saints
inent
▁imminent
rent
▁fervent
▁screened
▁unwillingly
▁hetty
braska
▁nebraska
▁moraine
▁maslov
▁cheered
▁announcing
▁municipal
aboo
▁diving
▁preoccupied
▁shuttle
▁attacks
▁crippled
▁mitig
▁pallor
▁implore
▁cray
▁overjoy
▁offerings
▁mortar
▁plumage
▁reappeared
▁juan
▁ordinance
▁reassuring
▁capturing
esee
▁adela
daughter
▁abiding
▁bamb
▁bamboo
▁amazingly
▁venturing
▁undertone
▁undertaker
▁tarling
loe
▁chloe
issure
▁fissure
▁wrapping
▁chinam
▁mineral
▁inflicted
▁committees
▁kr
▁caps
▁disappearing
▁throbbing
▁poland
▁resid
▁reside
▁soda
▁swain
▁swans
▁beauteous
▁loaves
▁norah
▁tilted
▁frowning
▁reclining
▁melting
▁intrinsic
▁ethere
▁stimulating
▁tissues
▁inconveniences
▁astounded
▁verm
▁similarly
▁ester
▁esterbrook
▁opposing
cturn
▁carrier
bald
▁cald
▁trudged
borg
separable
▁omen
▁omit
▁exultation
▁supporting
▁depraved
▁micaw
▁micawber
oxys
▁paroxys
▁sophia
▁scented
▁editorial
▁geological
afty
▁crafty
▁homesick
▁ravages
people
▁florina
▁hintock
▁skirted
▁rejoinder
▁handling
▁humorous
ese
▁geese
▁dipping
▁whipping
▁sulky
▁laf
▁lafitt
▁impair
▁sloping
ety
▁scy
▁scythe
▁harlow
▁subscription
▁unbearable
▁delirious
▁attainment
▁ignored
▁loathsome
▁lighter
▁telford
▁ank
▁ankle
▁fork
▁puzzle
▁ankles
▁brus
▁brag
▁merchandise
▁surmise
▁despoil
▁ornamented
▁stiffened
▁bunches
▁role
▁rogues
▁weakened
▁indirectly
▁fortifications
▁dent
▁embank
▁woodpeck
▁roaming
▁beaming
▁admiringly
▁florida
▁hunch
▁lengthen
▁irrit
▁fruitful
▁impotent
utation
▁decoration
▁ingratitude
engthe
engthening
▁favoured
▁reced
▁turbulent
▁midwin
▁hyrcanus
▁gourville
▁behaving
▁ting
▁tinge
